{
  "version": "1.0",
  "truncation": null,
  "padding": null,
  "added_tokens": [
    {
      "id": 0,
      "content": "[PAD]",
      "single_word": false,
      "lstrip": false,
      "rstrip": false,
      "normalized": false,
      "special": true
    },
    {
      "id": 1,
      "content": "[START]",
      "single_word": false,
      "lstrip": false,
      "rstrip": false,
      "normalized": false,
      "special": true
    },
    {
      "id": 2,
      "content": "[END]",
      "single_word": false,
      "lstrip": false,
      "rstrip": false,
      "normalized": false,
      "special": true
    },
    {
      "id": 3,
      "content": "[UNK]",
      "single_word": false,
      "lstrip": false,
      "rstrip": false,
      "normalized": false,
      "special": true
    }
  ],
  "normalizer": null,
  "pre_tokenizer": {
    "type": "ByteLevel",
    "add_prefix_space": true,
    "trim_offsets": true,
    "use_regex": true
  },
  "post_processor": {
    "type": "TemplateProcessing",
    "single": [
      {
        "SpecialToken": {
          "id": "[START]",
          "type_id": 0
        }
      },
      {
        "Sequence": {
          "id": "A",
          "type_id": 0
        }
      },
      {
        "SpecialToken": {
          "id": "[END]",
          "type_id": 0
        }
      }
    ],
    "pair": [
      {
        "Sequence": {
          "id": "A",
          "type_id": 0
        }
      },
      {
        "Sequence": {
          "id": "B",
          "type_id": 1
        }
      }
    ],
    "special_tokens": {
      "[END]": {
        "id": "[END]",
        "ids": [
          2
        ],
        "tokens": [
          "[END]"
        ]
      },
      "[START]": {
        "id": "[START]",
        "ids": [
          1
        ],
        "tokens": [
          "[START]"
        ]
      }
    }
  },
  "decoder": {
    "type": "ByteLevel",
    "add_prefix_space": true,
    "trim_offsets": true,
    "use_regex": true
  },
  "model": {
    "type": "BPE",
    "dropout": null,
    "unk_token": "[UNK]",
    "continuing_subword_prefix": null,
    "end_of_word_suffix": null,
    "fuse_unk": false,
    "byte_fallback": false,
    "ignore_merges": false,
    "vocab": {
      "[PAD]": 0,
      "[START]": 1,
      "[END]": 2,
      "[UNK]": 3,
      "\"": 4,
      "#": 5,
      "%": 6,
      "&": 7,
      "'": 8,
      "(": 9,
      ")": 10,
      "*": 11,
      "+": 12,
      ",": 13,
      "-": 14,
      ".": 15,
      "/": 16,
      "0": 17,
      "1": 18,
      "2": 19,
      "3": 20,
      "4": 21,
      "5": 22,
      "6": 23,
      "7": 24,
      "8": 25,
      "9": 26,
      ":": 27,
      ";": 28,
      "<": 29,
      "=": 30,
      ">": 31,
      "A": 32,
      "B": 33,
      "C": 34,
      "D": 35,
      "E": 36,
      "F": 37,
      "G": 38,
      "H": 39,
      "I": 40,
      "J": 41,
      "K": 42,
      "L": 43,
      "M": 44,
      "N": 45,
      "O": 46,
      "P": 47,
      "Q": 48,
      "R": 49,
      "S": 50,
      "T": 51,
      "U": 52,
      "V": 53,
      "W": 54,
      "X": 55,
      "Y": 56,
      "Z": 57,
      "[": 58,
      "]": 59,
      "_": 60,
      "a": 61,
      "b": 62,
      "c": 63,
      "d": 64,
      "e": 65,
      "f": 66,
      "g": 67,
      "h": 68,
      "i": 69,
      "j": 70,
      "k": 71,
      "l": 72,
      "m": 73,
      "n": 74,
      "o": 75,
      "p": 76,
      "q": 77,
      "r": 78,
      "s": 79,
      "t": 80,
      "u": 81,
      "v": 82,
      "w": 83,
      "x": 84,
      "y": 85,
      "z": 86,
      "{": 87,
      "}": 88,
      "~": 89,
      "â": 90,
      "Ġ": 91,
      "ĥ": 92,
      "Ħ": 93,
      "Ġa": 94,
      "ro": 95,
      "in": 96,
      "is": 97,
      "Ġan": 98,
      "on": 99,
      "le": 100,
      "he": 101,
      "te": 102,
      "Ġis": 103,
      "id": 104,
      "Ġo": 105,
      "Ġm": 106,
      "Ġt": 107,
      "ha": 108,
      "ĠI": 109,
      "ti": 110,
      "ĠIt": 111,
      "yl": 112,
      "en": 113,
      "Ġof": 114,
      "Ġc": 115,
      "et": 116,
      "os": 117,
      "ic": 118,
      "an": 119,
      "Ġand": 120,
      "Ġp": 121,
      "er": 122,
      "es": 123,
      "ol": 124,
      "Ġac": 125,
      "Ġb": 126,
      "Ġthe": 127,
      "Ġf": 128,
      "ole": 129,
      "Ġd": 130,
      "Ġs": 131,
      "al": 132,
      "Ġacid": 133,
      "cu": 134,
      "ate": 135,
      "ĠT": 136,
      "Ġg": 137,
      "ac": 138,
      "ar": 139,
      "ĠThe": 140,
      "olecu": 141,
      "Ġmolecu": 142,
      "Ġmolecule": 143,
      "hy": 144,
      "xy": 145,
      "ine": 146,
      "hyd": 147,
      "tion": 148,
      "eta": 149,
      "hydro": 150,
      "or": 151,
      "rom": 152,
      "up": 153,
      "it": 154,
      "Ġha": 155,
      "Ġgro": 156,
      "Ġgroup": 157,
      "Ġcon": 158,
      "ide": 159,
      "Ġas": 160,
      "as": 161,
      "Ġat": 162,
      "Ġhas": 163,
      "am": 164,
      "Ġfrom": 165,
      "pha": 166,
      "ec": 167,
      "hydroxy": 168,
      "Ġin": 169,
      "yc": 170,
      "ite": 171,
      "Ġro": 172,
      "ug": 173,
      "om": 174,
      "Ġrole": 175,
      ")-": 176,
      "iv": 177,
      "Ġ(": 178,
      "Ġr": 179,
      "ing": 180,
      "eth": 181,
      "eriv": 182,
      "Ġderiv": 183,
      "arb": 184,
      "ent": 185,
      "ph": 186,
      "Ġtha": 187,
      "Ġthat": 188,
      "ox": 189,
      "bol": 190,
      "at": 191,
      "etabol": 192,
      "Ġmetabol": 193,
      "ition": 194,
      "jug": 195,
      "Ġmetabolite": 196,
      "jugate": 197,
      "Ġconjugate": 198,
      "Ġw": 199,
      "Ġby": 200,
      "osition": 201,
      "ter": 202,
      "un": 203,
      "ed": 204,
      "ino": 205,
      "oxy": 206,
      "uc": 207,
      "em": 208,
      "ep": 209,
      "Ġ1": 210,
      "Ġposition": 211,
      "ethyl": 212,
      "tr": 213,
      "Ġ2": 214,
      "gl": 215,
      "ta": 216,
      "Ġal": 217,
      "oc": 218,
      "ase": 219,
      "Ġderives": 220,
      "one": 221,
      "op": 222,
      "Ġsu": 223,
      "Ġ3": 224,
      "ation": 225,
      "ber": 226,
      "di": 227,
      "hi": 228,
      "ur": 229,
      "tiv": 230,
      "ember": 231,
      "ion": 232,
      "Ġmember": 233,
      "yr": 234,
      "tic": 235,
      "um": 236,
      "-(": 237,
      "Ġam": 238,
      "ich": 239,
      "eno": 240,
      "tit": 241,
      "bs": 242,
      "ano": 243,
      "titu": 244,
      "Ġbase": 245,
      "cha": 246,
      "hen": 247,
      "ospha": 248,
      "Ġcom": 249,
      ").": 250,
      "bstitu": 251,
      "Ġl": 252,
      "Ġres": 253,
      "Ġwh": 254,
      "tive": 255,
      "Ġcarb": 256,
      "Ġwhich": 257,
      "Ġcomp": 258,
      "Ġsubstitu": 259,
      "pec": 260,
      "ul": 261,
      "und": 262,
      "enz": 263,
      "ycl": 264,
      "osphate": 265,
      "Ġag": 266,
      "oxyl": 267,
      "gen": 268,
      "ated": 269,
      "Ġtr": 270,
      "Ġn": 271,
      "ound": 272,
      "im": 273,
      "ty": 274,
      "Ġgroups": 275,
      "rot": 276,
      "us": 277,
      "ride": 278,
      "ted": 279,
      "ant": 280,
      "Ġhydroxy": 281,
      "oxylic": 282,
      "Ġamino": 283,
      "Ġ7": 284,
      "beta": 285,
      "Ġmon": 286,
      "->": 287,
      "Ġor": 288,
      "az": 289,
      "Ġcompound": 290,
      "ĠN": 291,
      "atty": 292,
      "roton": 293,
      "Ġ4": 294,
      "Ġanti": 295,
      "tero": 296,
      "bit": 297,
      "osyl": 298,
      "accha": 299,
      "methyl": 300,
      "Ġfatty": 301,
      "alpha": 302,
      "ut": 303,
      "Ġfor": 304,
      "hibit": 305,
      "gluc": 306,
      "act": 307,
      "peci": 308,
      "Ġdi": 309,
      "ined": 310,
      "Ġorg": 311,
      "Ġsubstituted": 312,
      "ose": 313,
      "Ġgl": 314,
      "Ġagent": 315,
      "ist": 316,
      "ary": 317,
      "ith": 318,
      "qu": 319,
      "ĠL": 320,
      "dec": 321,
      "Ġto": 322,
      "oA": 323,
      "hex": 324,
      "accharide": 325,
      "Ġ5": 326,
      "arboxylic": 327,
      "CoA": 328,
      "Ġwith": 329,
      "Ġspeci": 330,
      "ly": 331,
      "ester": 332,
      "fl": 333,
      "ĠA": 334,
      "phosphate": 335,
      "amino": 336,
      "rop": 337,
      "omer": 338,
      "yclic": 339,
      "Ġalpha": 340,
      "-).": 341,
      "hol": 342,
      "re": 343,
      "Ġbeta": 344,
      "ative": 345,
      "tetr": 346,
      "Ġph": 347,
      "rotonation": 348,
      "las": 349,
      "ĠC": 350,
      "amine": 351,
      "Ġob": 352,
      "tained": 353,
      "Ġobtained": 354,
      "Ġpositions": 355,
      "Ġcarboxy": 356,
      "benz": 357,
      "glyc": 358,
      "Ġanion": 359,
      "henyl": 360,
      "Ġma": 361,
      "Ġform": 362,
      "ond": 363,
      "Ġderivative": 364,
      "Ġester": 365,
      "Ġbe": 366,
      "Ġhydro": 367,
      "ig": 368,
      "ene": 369,
      "ot": 370,
      "av": 371,
      "Ġorgan": 372,
      "gal": 373,
      "el": 374,
      "osph": 375,
      "Ġinhibit": 376,
      "Ġox": 377,
      "Ġmethyl": 378,
      "Ġdep": 379,
      "jor": 380,
      "ero": 381,
      "ĠpH": 382,
      "Ġinhibitor": 383,
      "Ġe": 384,
      "idu": 385,
      "Ġh": 386,
      "Ġacyl": 387,
      "ium": 388,
      "Ġdeprotonation": 389,
      "Ġspecies": 390,
      "Ġmajor": 391,
      "yran": 392,
      "de": 393,
      "il": 394,
      "her": 395,
      "Ġen": 396,
      "Ġ6": 397,
      "etyl": 398,
      "Ġresidu": 399,
      "Ġmonoc": 400,
      "Ġpl": 401,
      "hl": 402,
      "Ġglyc": 403,
      "ip": 404,
      "ept": 405,
      "ia": 406,
      "ans": 407,
      "teroid": 408,
      "Ġbeen": 409,
      "Ġplant": 410,
      "Ġhav": 411,
      "den": 412,
      "oside": 413,
      "ĠD": 414,
      "opyran": 415,
      "acetyl": 416,
      "ial": 417,
      "ethoxy": 418,
      "Ġorganic": 419,
      "acyl": 420,
      "oyl": 421,
      "olated": 422,
      "ros": 423,
      "co": 424,
      "Ġmonocarboxylic": 425,
      "ane": 426,
      "Ġv": 427,
      "ĠE": 428,
      "'-": 429,
      "ap": 430,
      "Ġk": 431,
      "io": 432,
      "oro": 433,
      "idine": 434,
      "ulf": 435,
      "lf": 436,
      "oxo": 437,
      "rp": 438,
      "ins": 439,
      "Ġsulf": 440,
      "anoic": 441,
      "iterp": 442,
      "enoid": 443,
      "Ġhum": 444,
      "Ġhe": 445,
      "Ġhuman": 446,
      "Ġcons": 447,
      "galact": 448,
      "hexa": 449,
      "phosph": 450,
      "ron": 451,
      "ĠO": 452,
      "Ġhydrogen": 453,
      "glycero": 454,
      "Ġar": 455,
      "oly": 456,
      "Ġtetr": 457,
      "Ġconsist": 458,
      "Ġhaving": 459,
      "cohol": 460,
      "Ġalcohol": 461,
      "hed": 462,
      "Ġphosphate": 463,
      "Ġoxo": 464,
      "Ġrep": 465,
      "Ġsteroid": 466,
      "Ġformal": 467,
      "Ġsubstituent": 468,
      "flav": 469,
      "Ġant": 470,
      "ĠS": 471,
      "lac": 472,
      "Ġmo": 473,
      "ult": 474,
      "rug": 475,
      "ink": 476,
      "phenyl": 477,
      "Ġter": 478,
      "atur": 479,
      "Ġpyr": 480,
      "anion": 481,
      "lass": 482,
      "amide": 483,
      "Ġclass": 484,
      "anoyl": 485,
      "tri": 486,
      "idin": 487,
      "ri": 488,
      "ag": 489,
      "chain": 490,
      "Ġreplac": 491,
      "dens": 492,
      "enoic": 493,
      "Ġpro": 494,
      "Ġresult": 495,
      "Ġisolated": 496,
      "iterpenoid": 497,
      "Ġcondens": 498,
      "Ġcondensation": 499,
      "len": 500,
      "Ġbenz": 501,
      "Ġreplaced": 502,
      "ising": 503,
      "Ġse": 504,
      "amin": 505,
      "carb": 506,
      "oid": 507,
      "quin": 508,
      "Ġit": 509,
      "acter": 510,
      "Ġpr": 511,
      "henol": 512,
      "Ġet": 513,
      "tac": 514,
      "Ġdrug": 515,
      "mon": 516,
      "han": 517,
      "Ġtw": 518,
      "tively": 519,
      "Ġpoly": 520,
      "aturated": 521,
      "Ġresidue": 522,
      "sn": 523,
      "Ġex": 524,
      "Ġrespec": 525,
      "Ġrespectively": 526,
      "th": 527,
      "Ġsec": 528,
      "Ġtwo": 529,
      "Ġlink": 530,
      "10": 531,
      "atic": 532,
      "the": 533,
      "anti": 534,
      "11": 535,
      "alt": 536,
      "pyr": 537,
      "oplas": 538,
      "antiomer": 539,
      "Ġsecond": 540,
      "Ġket": 541,
      "rol": 542,
      "osamine": 543,
      "ong": 544,
      "Ġsecondary": 545,
      "ys": 546,
      "oles": 547,
      "osaccharide": 548,
      "tadec": 549,
      "used": 550,
      "enoyl": 551,
      "Ġalk": 552,
      "Ġconsisting": 553,
      "ann": 554,
      "eptide": 555,
      "ĠEC": 556,
      "hlor": 557,
      "itro": 558,
      "Ġmono": 559,
      "Ġco": 560,
      "ity": 561,
      "ten": 562,
      "Ġantine": 563,
      "oplastic": 564,
      "Ġsalt": 565,
      "Ġfun": 566,
      "Ġantineoplastic": 567,
      "Ġcar": 568,
      "but": 569,
      "amm": 570,
      "Ġfl": 571,
      "saturated": 572,
      "Ġone": 573,
      "acterial": 574,
      "Ġarom": 575,
      "sulf": 576,
      "Ġattac": 577,
      "Ġether": 578,
      "Ġaromatic": 579,
      "Ġattached": 580,
      "benzo": 581,
      "position": 582,
      "14": 583,
      "Ġhyd": 584,
      "deoxy": 585,
      "me": 586,
      "isaccharide": 587,
      "-)": 588,
      "iotic": 589,
      "biotic": 590,
      "Ġare": 591,
      "onic": 592,
      "Ġhetero": 593,
      "anc": 594,
      "Ġactiv": 595,
      "acyclic": 596,
      "onist": 597,
      "Ġketone": 598,
      "Ġused": 599,
      "hexadec": 600,
      "Ġresulting": 601,
      "12": 602,
      "Ġexhibit": 603,
      "icos": 604,
      "ment": 605,
      "Ġconta": 606,
      "ell": 607,
      "Ġthi": 608,
      "unsaturated": 609,
      "use": 610,
      "tiary": 611,
      "Ġtertiary": 612,
      "Ġbond": 613,
      "anine": 614,
      "Ġenantiomer": 615,
      "asaccharide": 616,
      "13": 617,
      "phospho": 618,
      "Gl": 619,
      "Ġx": 620,
      "Ġarising": 621,
      "aph": 622,
      "Ġind": 623,
      "ator": 624,
      "Ġol": 625,
      "azol": 626,
      "odi": 627,
      "ucle": 628,
      "flu": 629,
      "enyl": 630,
      "yclo": 631,
      "Ġolig": 632,
      "ical": 633,
      "Ġresidues": 634,
      "Ġcontains": 635,
      "fi": 636,
      "ub": 637,
      "yn": 638,
      "Ġoxoanion": 639,
      "prop": 640,
      "glucopyran": 641,
      "Ġtri": 642,
      "Ġorgano": 643,
      "Ġta": 644,
      "Ġdiphosphate": 645,
      "res": 646,
      "erg": 647,
      "Ġep": 648,
      "-[": 649,
      "Ġmouse": 650,
      "osine": 651,
      "fied": 652,
      "Ġactivity": 653,
      "Ġpent": 654,
      "15": 655,
      "Ġprim": 656,
      "NA": 657,
      "Ġprimary": 658,
      "ch": 659,
      "Ġphenol": 660,
      "ones": 661,
      "mann": 662,
      "Ġcarboxylic": 663,
      "terion": 664,
      "pt": 665,
      "Ġlong": 666,
      "Ġcyclic": 667,
      "Ġz": 668,
      "Ġ8": 669,
      "ĠM": 670,
      "fur": 671,
      "Ġhydride": 672,
      "imid": 673,
      "chol": 674,
      "hanol": 675,
      "Ġacet": 676,
      "ocos": 677,
      "Ġtrans": 678,
      "ce": 679,
      "Ġdo": 680,
      "ir": 681,
      "hloro": 682,
      "Ġnon": 683,
      "Ġexhibits": 684,
      "ab": 685,
      "ĠOH": 686,
      "Ġalkal": 687,
      "Ġnitro": 688,
      "enes": 689,
      "Ġoligosaccharide": 690,
      "Ġalkaloid": 691,
      "flavone": 692,
      "Glc": 693,
      "utomer": 694,
      "wit": 695,
      "Ġtautomer": 696,
      "),": 697,
      "tra": 698,
      "ĠP": 699,
      "icarboxylic": 700,
      "quen": 701,
      "ry": 702,
      "etam": 703,
      "Ġgluc": 704,
      "witterion": 705,
      "itol": 706,
      "ad": 707,
      "dihydro": 708,
      "Ġoc": 709,
      "and": 710,
      "Ġspecified": 711,
      "Ġphosph": 712,
      "ines": 713,
      "Ġsequen": 714,
      "pent": 715,
      "Ġmethoxy": 716,
      "ure": 717,
      "Ġzwitterion": 718,
      "Ġcation": 719,
      "methoxy": 720,
      "+).": 721,
      "Ġtriterpenoid": 722,
      "rate": 723,
      "ib": 724,
      "16": 725,
      "actone": 726,
      "eat": 727,
      "Ġbr": 728,
      "Ġcy": 729,
      "Ġxeno": 730,
      "uration": 731,
      "ill": 732,
      "tetra": 733,
      "Ġj": 734,
      "fig": 735,
      "Ġproton": 736,
      "Ġxenobiotic": 737,
      "figuration": 738,
      "glycerol": 739,
      "iper": 740,
      "glut": 741,
      "Ġ9": 742,
      "phing": 743,
      "ido": 744,
      "Ġhydrogens": 745,
      "octadec": 746,
      "DP": 747,
      "tha": 748,
      "]-": 749,
      "ind": 750,
      "dihydroxy": 751,
      "Ġamide": 752,
      "tag": 753,
      "fer": 754,
      "Ġsubstituents": 755,
      "oprop": 756,
      "ob": 757,
      "uble": 758,
      "Ġcor": 759,
      "og": 760,
      "azole": 761,
      "dehyd": 762,
      "Ġcer": 763,
      "ga": 764,
      "Ġole": 765,
      "quinol": 766,
      "19": 767,
      "Ġsulfate": 768,
      "enzy": 769,
      "Ġnitrogen": 770,
      "sc": 771,
      "icyclic": 772,
      "ver": 773,
      "Ġcarry": 774,
      "Ġlinkag": 775,
      "Ġantag": 776,
      "azine": 777,
      "Ġlinked": 778,
      "Ġcarrying": 779,
      "Ġad": 780,
      "anth": 781,
      "ow": 782,
      "sis": 783,
      "Ġantagonist": 784,
      "Ġch": 785,
      "furan": 786,
      "Ġring": 787,
      "roc": 788,
      "Ġall": 789,
      "eptor": 790,
      "enzyme": 791,
      "Ġun": 792,
      "Ġion": 793,
      "Ġde": 794,
      "osphat": 795,
      "Ġsequence": 796,
      "iet": 797,
      "icide": 798,
      "tere": 799,
      "glucos": 800,
      "eceptor": 801,
      "aminyl": 802,
      "Ġbacterial": 803,
      "adi": 804,
      "ne": 805,
      "ach": 806,
      "yces": 807,
      "Ġphenyl": 808,
      "isomer": 809,
      "anyl": 810,
      "Ġtreat": 811,
      "glucoside": 812,
      "dimethyl": 813,
      "genic": 814,
      "NAc": 815,
      "inic": 816,
      "Ġth": 817,
      "osphatid": 818,
      "monium": 819,
      "xyl": 820,
      "alanine": 821,
      "onate": 822,
      "Ġflu": 823,
      "yste": 824,
      "docos": 825,
      "Ġprop": 826,
      "Ġphenols": 827,
      "Gal": 828,
      "oth": 829,
      "par": 830,
      "etic": 831,
      "17": 832,
      "Ġjo": 833,
      "onyl": 834,
      "ĠH": 835,
      "hloride": 836,
      "od": 837,
      "dehyde": 838,
      "Ġjoined": 839,
      "',": 840,
      "Ġantim": 841,
      "Ġred": 842,
      "Man": 843,
      "Ġtetra": 844,
      "rote": 845,
      "ĠIs": 846,
      "ction": 847,
      "Ġdicarboxylic": 848,
      "alk": 849,
      "acos": 850,
      "Ġdouble": 851,
      "osid": 852,
      "ositol": 853,
      "thi": 854,
      "Ġcol": 855,
      "anoid": 856,
      "Ġprod": 857,
      "Ġon": 858,
      "Ġtrisaccharide": 859,
      "ĠIsolated": 860,
      "Ġle": 861,
      "Ġbi": 862,
      "ree": 863,
      "Ġcoenzyme": 864,
      "Ġcompr": 865,
      "iety": 866,
      "-[(": 867,
      "our": 868,
      "ronic": 869,
      "eu": 870,
      "con": 871,
      "flavan": 872,
      "elta": 873,
      "ynthe": 874,
      "azoles": 875,
      "uct": 876,
      "18": 877,
      "Ġprotonation": 878,
      "Ġdisaccharide": 879,
      "ĠB": 880,
      "Ġtreatment": 881,
      "Ġhex": 882,
      "Ġ17": 883,
      "glucosamine": 884,
      "anched": 885,
      "Ġboth": 886,
      "opyranose": 887,
      "atory": 888,
      "ev": 889,
      "Ġvia": 890,
      "amic": 891,
      "Ġacetate": 892,
      "do": 893,
      "Ġfunction": 894,
      "Ġreceptor": 895,
      "Ġpolyp": 896,
      "flamm": 897,
      "ĠG": 898,
      "hanolamine": 899,
      "Ġantib": 900,
      "Ġpar": 901,
      "amma": 902,
      "hem": 903,
      "all": 904,
      "ally": 905,
      "anoate": 906,
      "Ġconsists": 907,
      "idines": 908,
      "ides": 909,
      "benzenes": 910,
      "20": 911,
      "Ġammonium": 912,
      "oisomer": 913,
      "Ġunit": 914,
      "Ġmoiety": 915,
      "24": 916,
      "Ġ11": 917,
      "ov": 918,
      "naph": 919,
      "benzene": 920,
      "Ġantif": 921,
      "lene": 922,
      "Ġthiol": 923,
      "Ġre": 924,
      "ts": 925,
      "Ġglycosid": 926,
      "atri": 927,
      "Ġantibacterial": 928,
      "Ġditerpenoid": 929,
      "galactosyl": 930,
      "Ġglycosyl": 931,
      "flammatory": 932,
      "inositol": 933,
      "let": 934,
      "Ġbut": 935,
      "Ġsp": 936,
      "aring": 937,
      "inflammatory": 938,
      "acetam": 939,
      "Ġnucle": 940,
      "osphatidyl": 941,
      "ungal": 942,
      "Ġflav": 943,
      "aro": 944,
      "esqu": 945,
      "Ġdis": 946,
      "alm": 947,
      "Ġcyclo": 948,
      "ope": 949,
      "Ġglycoside": 950,
      "isia": 951,
      "odium": 952,
      "Ġsesqu": 953,
      "ains": 954,
      "nit": 955,
      "Ġantifungal": 956,
      "trans": 957,
      "inate": 958,
      "iso": 959,
      "Ġagains": 960,
      "Ġagainst": 961,
      "oic": 962,
      "ĠU": 963,
      "Ġprote": 964,
      "erine": 965,
      "terol": 966,
      "Ġgu": 967,
      "romyces": 968,
      "Ġresults": 969,
      "amate": 970,
      "accharomyces": 971,
      "Ġcerev": 972,
      "isiae": 973,
      "Ġcerevisiae": 974,
      "ĠSaccharomyces": 975,
      "glucosyl": 976,
      "Ġbearing": 977,
      "ive": 978,
      "ichl": 979,
      "Ġatom": 980,
      "Ġap": 981,
      "hydrate": 982,
      "carboxy": 983,
      "hlorine": 984,
      "ucu": 985,
      "edi": 986,
      "glucopyranosyl": 987,
      "Ġglycosidic": 988,
      "Ġcycl": 989,
      "rib": 990,
      "ye": 991,
      "Ġcyt": 992,
      "Ġbonds": 993,
      "resp": 994,
      "Ġcomprising": 995,
      "enoate": 996,
      "sp": 997,
      "etin": 998,
      "hia": 999,
      "car": 1000,
      "Ġcoli": 1001,
      "oleoyl": 1002,
      "min": 1003,
      "Ġmet": 1004,
      "respond": 1005,
      "ycin": 1006,
      "Ġagonist": 1007,
      "dition": 1008,
      "orop": 1009,
      "Ġanal": 1010,
      "sulfo": 1011,
      "ler": 1012,
      "galactose": 1013,
      "Ġpeptide": 1014,
      "glucose": 1015,
      "Ġur": 1016,
      "Ġcarbo": 1017,
      "itis": 1018,
      "inogenic": 1019,
      "Ġ12": 1020,
      "Ġend": 1021,
      "tereoisomer": 1022,
      "oxamide": 1023,
      "scher": 1024,
      "benzoic": 1025,
      "ichia": 1026,
      "ĠEscher": 1027,
      "ĠEscherichia": 1028,
      "Ġcha": 1029,
      "ĠF": 1030,
      "Ġreduc": 1031,
      "enta": 1032,
      "ca": 1033,
      "se": 1034,
      "Ġepit": 1035,
      "ff": 1036,
      "Ġhexadec": 1037,
      "hyt": 1038,
      "Ġcorrespond": 1039,
      "Ġthree": 1040,
      "opropyl": 1041,
      "ket": 1042,
      "steroid": 1043,
      "Ġorganophosphate": 1044,
      "Ġbranched": 1045,
      "ctive": 1046,
      "piper": 1047,
      "Ġcorresponding": 1048,
      "oxic": 1049,
      "Ġepitope": 1050,
      "imidine": 1051,
      "configuration": 1052,
      "ipid": 1053,
      "Ġcell": 1054,
      "orm": 1055,
      "Ġdye": 1056,
      "acetamido": 1057,
      "Ġtetrasaccharide": 1058,
      "Ġsh": 1059,
      "Ġaddition": 1060,
      "otide": 1061,
      "Ġhave": 1062,
      "almit": 1063,
      "ochol": 1064,
      "rosta": 1065,
      "Ġ10": 1066,
      "carboxylic": 1067,
      "Ġmac": 1068,
      "inase": 1069,
      "Ġmar": 1070,
      "cin": 1071,
      "yo": 1072,
      "Ġ15": 1073,
      "Ġglucosamine": 1074,
      "Ġdihydroxy": 1075,
      "phen": 1076,
      "Ġgamma": 1077,
      "alkyl": 1078,
      "Ġfung": 1079,
      "Ġmic": 1080,
      "hyp": 1081,
      "urine": 1082,
      "lys": 1083,
      "Ġpolyunsaturated": 1084,
      "ethanolamine": 1085,
      "othi": 1086,
      "Ġ20": 1087,
      "Ġantibiotic": 1088,
      "onucle": 1089,
      "Ġcont": 1090,
      "bd": 1091,
      "Ġnit": 1092,
      "opyranosyl": 1093,
      "Ġqu": 1094,
      "Ġlinkage": 1095,
      "pero": 1096,
      "iterpene": 1097,
      "chrom": 1098,
      "try": 1099,
      "Ġmonosaccharide": 1100,
      "ery": 1101,
      "Ġgal": 1102,
      "ra": 1103,
      "Ġaz": 1104,
      "ign": 1105,
      "rob": 1106,
      "Ġhydroc": 1107,
      "oxid": 1108,
      "glucopyranose": 1109,
      "Ġanomer": 1110,
      "anic": 1111,
      "oxide": 1112,
      "Ġ[": 1113,
      "ass": 1114,
      "Ġfluoro": 1115,
      "Ġome": 1116,
      "Ġomega": 1117,
      "ĠR": 1118,
      "hemical": 1119,
      "21": 1120,
      "prote": 1121,
      "yric": 1122,
      "Ġline": 1123,
      "Ġphosphatidyl": 1124,
      "Ġunits": 1125,
      "22": 1126,
      "Ġele": 1127,
      "acon": 1128,
      "renyl": 1129,
      "lar": 1130,
      "ord": 1131,
      "ato": 1132,
      "ergic": 1133,
      "glucosaminyl": 1134,
      "gland": 1135,
      "rostagland": 1136,
      "ke": 1137,
      "Ġoxid": 1138,
      "Ġadditional": 1139,
      "ham": 1140,
      "quinone": 1141,
      "fuc": 1142,
      "aspar": 1143,
      "ome": 1144,
      "Ġoctadec": 1145,
      "own": 1146,
      "26": 1147,
      "ophosphate": 1148,
      "oct": 1149,
      "ochlorine": 1150,
      "Ġorganochlorine": 1151,
      "rosine": 1152,
      "Ġsodium": 1153,
      "hept": 1154,
      "Ġgalact": 1155,
      "ue": 1156,
      "ren": 1157,
      "diol": 1158,
      "umar": 1159,
      "flavanone": 1160,
      "Ġloc": 1161,
      "Ġlactone": 1162,
      "lactone": 1163,
      "Ġrem": 1164,
      "Ġim": 1165,
      "Ġfound": 1166,
      "ylic": 1167,
      "terp": 1168,
      "Ġindole": 1169,
      "Ġbl": 1170,
      "Ġdianion": 1171,
      "Ġcarbon": 1172,
      "Ġmarine": 1173,
      "Ġiso": 1174,
      "enic": 1175,
      "cis": 1176,
      "Ġpolyphenol": 1177,
      "Ġimid": 1178,
      "Ġconfiguration": 1179,
      "Ġsynthe": 1180,
      "quinoline": 1181,
      "Ġformed": 1182,
      "Ġcarbohydrate": 1183,
      "ET": 1184,
      "osed": 1185,
      "apenta": 1186,
      "docosa": 1187,
      "olog": 1188,
      "Ġpentacyclic": 1189,
      ")-[": 1190,
      "bis": 1191,
      "glucu": 1192,
      "if": 1193,
      "ethion": 1194,
      "oate": 1195,
      "Ġhydrochloride": 1196,
      "Ġcent": 1197,
      "iron": 1198,
      "Ġethyl": 1199,
      "Ġagroc": 1200,
      "alen": 1201,
      "sec": 1202,
      "Glcp": 1203,
      "Ġlinear": 1204,
      "hamn": 1205,
      "la": 1206,
      "Ġaden": 1207,
      "atetra": 1208,
      "Ġdip": 1209,
      "acetic": 1210,
      "achid": 1211,
      "nitro": 1212,
      "uk": 1213,
      "tricyclic": 1214,
      "Ġcomposed": 1215,
      "Ġreducing": 1216,
      "ucine": 1217,
      "Ġglut": 1218,
      "Ġanomeric": 1219,
      "otri": 1220,
      "robial": 1221,
      "Ġremov": 1222,
      "Ġagrochemical": 1223,
      "olic": 1224,
      "Ġdim": 1225,
      "br": 1226,
      "Ġkinase": 1227,
      "ugar": 1228,
      "ĠCa": 1229,
      "yan": 1230,
      "Ġpo": 1231,
      "osis": 1232,
      "ĠAsp": 1233,
      "oxidant": 1234,
      "Ġunsaturated": 1235,
      "Ġdihydro": 1236,
      "propyl": 1237,
      "Ġremoval": 1238,
      "peroxy": 1239,
      "Ġantioxidant": 1240,
      "ĠAn": 1241,
      "otoxic": 1242,
      "olide": 1243,
      ")]-": 1244,
      "Ġacetam": 1245,
      "ati": 1246,
      "brom": 1247,
      "Delta": 1248,
      "rostaglandin": 1249,
      "hep": 1250,
      "diacyl": 1251,
      "fluoro": 1252,
      "Ġlinkages": 1253,
      "ichloro": 1254,
      "Ġfr": 1255,
      "phan": 1256,
      "so": 1257,
      "enor": 1258,
      "ost": 1259,
      "herb": 1260,
      "inium": 1261,
      "ysteine": 1262,
      "illus": 1263,
      "icrobial": 1264,
      "phosphoethanolamine": 1265,
      "st": 1266,
      "ges": 1267,
      "oxin": 1268,
      "methylhexadec": 1269,
      "gans": 1270,
      "habd": 1271,
      "Ġaldehyde": 1272,
      "Ġelegans": 1273,
      "chloro": 1274,
      "por": 1275,
      "enorhabd": 1276,
      "Ġits": 1277,
      "Ġantimicrobial": 1278,
      "proteinogenic": 1279,
      "ĠCaenorhabd": 1280,
      "ĠCaenorhabditis": 1281,
      "Ġstr": 1282,
      "Ġlocated": 1283,
      "onent": 1284,
      "anil": 1285,
      "Ġcomponent": 1286,
      "Ġfungal": 1287,
      "tetrahydro": 1288,
      "Ġfunctions": 1289,
      "ised": 1290,
      "Ġdipeptide": 1291,
      "erc": 1292,
      "pyran": 1293,
      "roline": 1294,
      "genase": 1295,
      "vin": 1296,
      "anes": 1297,
      "Ġacids": 1298,
      "ining": 1299,
      "undec": 1300,
      "uro": 1301,
      "Ġ14": 1302,
      "Ġconver": 1303,
      "fluor": 1304,
      "Ġprotein": 1305,
      "orophenyl": 1306,
      "herbicide": 1307,
      "terpenoid": 1308,
      "rhamn": 1309,
      "enantiomer": 1310,
      "Ġchloro": 1311,
      "Ġenone": 1312,
      "roside": 1313,
      "Ġoct": 1314,
      "Ġguan": 1315,
      "Galp": 1316,
      "Ġsesquiterpenoid": 1317,
      "ties": 1318,
      "ast": 1319,
      "butyl": 1320,
      "ergillus": 1321,
      "ĠAspergillus": 1322,
      "Ġ13": 1323,
      "tho": 1324,
      "ocholine": 1325,
      "Ġmed": 1326,
      "Ġfour": 1327,
      "Ġinsec": 1328,
      "oxylate": 1329,
      "ood": 1330,
      "myo": 1331,
      "orom": 1332,
      "choline": 1333,
      "Ġpiper": 1334,
      "thre": 1335,
      "Ġchrom": 1336,
      "erm": 1337,
      "Ġhep": 1338,
      "tens": 1339,
      "MP": 1340,
      "osulf": 1341,
      "asphing": 1342,
      "ric": 1343,
      "serine": 1344,
      "onoid": 1345,
      "idene": 1346,
      "carbonyl": 1347,
      "omega": 1348,
      "onin": 1349,
      "Ġste": 1350,
      "Ġsap": 1351,
      "Ġrib": 1352,
      "ticide": 1353,
      "almitoyl": 1354,
      "enicill": 1355,
      "met": 1356,
      "Ġcis": 1357,
      "Ġmicros": 1358,
      "we": 1359,
      "Ġcarboxamide": 1360,
      "rost": 1361,
      "phosphocholine": 1362,
      "ancer": 1363,
      "Ġtransfer": 1364,
      "caroside": 1365,
      "opyr": 1366,
      "Ġshown": 1367,
      "ological": 1368,
      "cycl": 1369,
      "decanoyl": 1370,
      "olest": 1371,
      "Ġpyrrol": 1372,
      "link": 1373,
      "arab": 1374,
      "pecies": 1375,
      "iz": 1376,
      "tetracyclic": 1377,
      "Ġheterotetracyclic": 1378,
      "-{": 1379,
      "Ġbrom": 1380,
      "monophosphate": 1381,
      "Ġproduc": 1382,
      "Ġcytotoxic": 1383,
      "hylene": 1384,
      "Ġconverted": 1385,
      "Ġhist": 1386,
      "hom": 1387,
      "uv": 1388,
      "Ġ16": 1389,
      "penta": 1390,
      "Ġmicrospecies": 1391,
      "Ġfur": 1392,
      "acet": 1393,
      "igh": 1394,
      "mannosyl": 1395,
      "Ġnaph": 1396,
      "ethionine": 1397,
      "dide": 1398,
      "to": 1399,
      "Ġtermin": 1400,
      "pto": 1401,
      "chrome": 1402,
      "mannose": 1403,
      "Ġchain": 1404,
      "23": 1405,
      "Ġacetyl": 1406,
      "tyrosine": 1407,
      "Ġfluorochrome": 1408,
      "positions": 1409,
      "indole": 1410,
      "Ġherbicide": 1411,
      "epoxy": 1412,
      "Ġheterotricyclic": 1413,
      "Ġicos": 1414,
      "Ġanth": 1415,
      "rile": 1416,
      "long": 1417,
      "onine": 1418,
      "Ġequ": 1419,
      "Ġalkyl": 1420,
      "naphtha": 1421,
      "Ġactive": 1422,
      "och": 1423,
      "ophen": 1424,
      "onucleoside": 1425,
      "lin": 1426,
      "Ġdocos": 1427,
      "opent": 1428,
      "iral": 1429,
      "yp": 1430,
      "IV": 1431,
      "arg": 1432,
      "orph": 1433,
      "ETE": 1434,
      "Ġacetamides": 1435,
      "dien": 1436,
      "ian": 1437,
      "ycle": 1438,
      "Ġaller": 1439,
      "GlcNAc": 1440,
      "cyclo": 1441,
      "olar": 1442,
      "ress": 1443,
      "Ġsaponin": 1444,
      "ptophan": 1445,
      "aldehyde": 1446,
      "Ġinduc": 1447,
      "Ġpoten": 1448,
      "Ġhyp": 1449,
      "ols": 1450,
      "Ġstra": 1451,
      "oph": 1452,
      "onamide": 1453,
      "galactopyranose": 1454,
      "ight": 1455,
      "ther": 1456,
      "eramide": 1457,
      "hydroxyflavone": 1458,
      "docosahexa": 1459,
      "Ġbet": 1460,
      "Ġsphing": 1461,
      "acid": 1462,
      "org": 1463,
      "Ġstereoisomer": 1464,
      "Ġmonochloro": 1465,
      "Ġorganosulf": 1466,
      "aroyl": 1467,
      "Ġdec": 1468,
      "Ġsaturated": 1469,
      "dehydro": 1470,
      "Ġorganofluor": 1471,
      "oromethyl": 1472,
      "Ġorganofluorine": 1473,
      "uron": 1474,
      "Ġneu": 1475,
      "Ġanalog": 1476,
      "sphing": 1477,
      "ocyan": 1478,
      "Ġsulfo": 1479,
      "aryl": 1480,
      "Ġchloride": 1481,
      "lysine": 1482,
      "Ġmonochlorobenzenes": 1483,
      "Ġne": 1484,
      "ulfonic": 1485,
      "inyl": 1486,
      "Ġphen": 1487,
      "olyc": 1488,
      "glycine": 1489,
      "ween": 1490,
      "amyl": 1491,
      "indol": 1492,
      "methylhexadecasphing": 1493,
      "+)-": 1494,
      "alar": 1495,
      "aric": 1496,
      "benzyl": 1497,
      "Ġfungicide": 1498,
      "Ġbetween": 1499,
      "est": 1500,
      "amoyl": 1501,
      "athi": 1502,
      "hydroxyphenyl": 1503,
      "actor": 1504,
      "reg": 1505,
      "Ġab": 1506,
      "Ġhydroxyl": 1507,
      "Ġamine": 1508,
      "actam": 1509,
      "alent": 1510,
      "decanoic": 1511,
      "ral": 1512,
      "ipeptide": 1513,
      "ix": 1514,
      "glucuron": 1515,
      "cyclic": 1516,
      "iro": 1517,
      "ĠUDP": 1518,
      "Ġsulfur": 1519,
      "fluoromethyl": 1520,
      "Ġfluor": 1521,
      "II": 1522,
      "ged": 1523,
      "Ġantic": 1524,
      "hist": 1525,
      "ud": 1526,
      "Ġglycine": 1527,
      "pyridine": 1528,
      "Ġapop": 1529,
      "Ġinter": 1530,
      "omycin": 1531,
      "dione": 1532,
      "form": 1533,
      "Ġcancer": 1534,
      "cular": 1535,
      "Ġalso": 1536,
      "iduronic": 1537,
      "Ġtetracyclic": 1538,
      "end": 1539,
      "benzoyl": 1540,
      "erol": 1541,
      "ukotri": 1542,
      "Ġinsecticide": 1543,
      "Ġallergen": 1544,
      "tosis": 1545,
      "Ġbenzoate": 1546,
      "'.": 1547,
      "rin": 1548,
      "Ġgen": 1549,
      "Ġpentasaccharide": 1550,
      "ofuran": 1551,
      "ang": 1552,
      "Ġascaroside": 1553,
      "Ġmonom": 1554,
      "Ġapoptosis": 1555,
      "Ġside": 1556,
      "aline": 1557,
      "lective": 1558,
      "Ġcin": 1559,
      "ater": 1560,
      "mental": 1561,
      "Ġmacroc": 1562,
      "ukotriene": 1563,
      "atechol": 1564,
      "ignan": 1565,
      "oxygenase": 1566,
      "glycosyl": 1567,
      "aconta": 1568,
      "organic": 1569,
      "Ġprostaglandin": 1570,
      "Ġinorganic": 1571,
      "Ġinhibitory": 1572,
      "Ġosc": 1573,
      "Ġmann": 1574,
      "glycer": 1575,
      "Ġterp": 1576,
      "Ġheteropent": 1577,
      "Ġoscr": 1578,
      "Ġheteropentacyclic": 1579,
      "Ġhom": 1580,
      "Ġanalogue": 1581,
      "azin": 1582,
      "icosatri": 1583,
      "Ġolef": 1584,
      "olin": 1585,
      "Ġstruct": 1586,
      "25": 1587,
      "lex": 1588,
      "Ġcontamin": 1589,
      "ym": 1590,
      "Ġlipid": 1591,
      "Ġeach": 1592,
      "Ġenv": 1593,
      "Ġmedium": 1594,
      "ellin": 1595,
      "ylet": 1596,
      "ether": 1597,
      "Ġsuc": 1598,
      "Ġmonoterpenoid": 1599,
      "Ġenviron": 1600,
      "ma": 1601,
      "Ġmus": 1602,
      "Ġphyt": 1603,
      "alic": 1604,
      "Ġcontaminant": 1605,
      "Ġenvironmental": 1606,
      "fec": 1607,
      "Ġsulfonamide": 1608,
      "Ġprodrug": 1609,
      "azep": 1610,
      "Ġepoxide": 1611,
      "Ġbrid": 1612,
      "Ġmonomethoxy": 1613,
      "role": 1614,
      "Ġsesquiterpene": 1615,
      "su": 1616,
      "esterase": 1617,
      "Ġphosphatidylcholine": 1618,
      "Ġte": 1619,
      "Ġsc": 1620,
      "fatty": 1621,
      "Ġop": 1622,
      "Ġoxy": 1623,
      "ata": 1624,
      "imethyl": 1625,
      "phosphon": 1626,
      "ibber": 1627,
      "Ġpurine": 1628,
      "Ġsyn": 1629,
      "Ġantip": 1630,
      "phenylalanine": 1631,
      "Ġbenzyl": 1632,
      "proline": 1633,
      "butyric": 1634,
      "aroten": 1635,
      "Ġadenosine": 1636,
      "Ġaryl": 1637,
      "tryptophan": 1638,
      "trept": 1639,
      "Ġsing": 1640,
      "alc": 1641,
      "amides": 1642,
      "Ġoleic": 1643,
      "non": 1644,
      "alanyl": 1645,
      "ula": 1646,
      "Ġvery": 1647,
      "Ġmonounsaturated": 1648,
      "apentaenoic": 1649,
      "Ġsulfide": 1650,
      "Ġmonohydroxy": 1651,
      "nitine": 1652,
      "aspartic": 1653,
      "cysteine": 1654,
      "action": 1655,
      "Ġanalges": 1656,
      "Ġanalgesic": 1657,
      "ste": 1658,
      "Ġproduced": 1659,
      "leucine": 1660,
      "Ġsingle": 1661,
      "lator": 1662,
      "Ġdelta": 1663,
      "Ġroot": 1664,
      "Ġcinn": 1665,
      "ibberellin": 1666,
      "ax": 1667,
      "inine": 1668,
      ")-(": 1669,
      "Ġolefinic": 1670,
      "Ġstructure": 1671,
      "Ġother": 1672,
      "TP": 1673,
      "iphenyl": 1674,
      "Ġphospho": 1675,
      "Ġpotent": 1676,
      "Ġselective": 1677,
      "carbon": 1678,
      "Ġterminal": 1679,
      "Ġinducer": 1680,
      "Ġfer": 1681,
      "alarial": 1682,
      "sed": 1683,
      "enine": 1684,
      "Ġnucleotide": 1685,
      "28": 1686,
      "olate": 1687,
      "icarb": 1688,
      "erv": 1689,
      "Ġ19": 1690,
      "Ġxanth": 1691,
      "glutamic": 1692,
      "inary": 1693,
      "Ġderived": 1694,
      "Ġlin": 1695,
      "Ġcarbamate": 1696,
      "Ġdiol": 1697,
      "GlcpNAc": 1698,
      "ark": 1699,
      "Ġwell": 1700,
      "azines": 1701,
      "Ġdeoxy": 1702,
      "Ġantimalarial": 1703,
      "inesterase": 1704,
      "Ġanil": 1705,
      "age": 1706,
      "Ġprenyl": 1707,
      "Ġcentre": 1708,
      "substitu": 1709,
      "Ġinto": 1710,
      "Ġvas": 1711,
      "aprenyl": 1712,
      "acosanoyl": 1713,
      "Ġhexadecanoic": 1714,
      "piperazine": 1715,
      "Ġsynthesis": 1716,
      "-)-": 1717,
      "Ġst": 1718,
      "Ġlys": 1719,
      "Ġnem": 1720,
      "til": 1721,
      "Ġ(+)-": 1722,
      "Ġ18": 1723,
      "Ġpyridine": 1724,
      "medi": 1725,
      "Ġwhe": 1726,
      "Ġlip": 1727,
      "Ġquerc": 1728,
      ")(": 1729,
      "trifluoromethyl": 1730,
      "pyrrol": 1731,
      "Ġcyclohex": 1732,
      ")]": 1733,
      "sterol": 1734,
      "quinones": 1735,
      "Ġcells": 1736,
      "Ġquinol": 1737,
      "Ġcatechol": 1738,
      "Ġpenta": 1739,
      "Ġcontrol": 1740,
      "ea": 1741,
      "ĠdT": 1742,
      "rotective": 1743,
      "diene": 1744,
      "ai": 1745,
      "Ġquin": 1746,
      "tially": 1747,
      "oleic": 1748,
      "thyl": 1749,
      "mediate": 1750,
      "itr": 1751,
      "Ġrel": 1752,
      "emic": 1753,
      "press": 1754,
      "chl": 1755,
      "fen": 1756,
      "acc": 1757,
      "Ġarachid": 1758,
      "ochrom": 1759,
      "ger": 1760,
      "mer": 1761,
      "onoyl": 1762,
      "ertens": 1763,
      "anthen": 1764,
      "Ġantiv": 1765,
      "ospor": 1766,
      "Ġnatur": 1767,
      "ĠStrept": 1768,
      "cholinesterase": 1769,
      "methoxyphenyl": 1770,
      "Ġantiviral": 1771,
      "osaminyl": 1772,
      "Ġ(-)-": 1773,
      "thase": 1774,
      "ystem": 1775,
      "dideoxy": 1776,
      "lc": 1777,
      "ĠMa": 1778,
      "Ġphosphor": 1779,
      "30": 1780,
      "aS": 1781,
      "cr": 1782,
      "member": 1783,
      "Ġmyc": 1784,
      "trimethyl": 1785,
      "Ġhydrate": 1786,
      "Ġceramide": 1787,
      "ens": 1788,
      "ensis": 1789,
      "olv": 1790,
      "Ġinc": 1791,
      "oma": 1792,
      "methylbut": 1793,
      "glutamyl": 1794,
      "Ġglycosyloxy": 1795,
      "kelet": 1796,
      "Ġper": 1797,
      "edio": 1798,
      "galactosamine": 1799,
      "Ġpyrimidine": 1800,
      "lenes": 1801,
      "Ġquercetin": 1802,
      "tity": 1803,
      "Ġenol": 1804,
      "Ġurinary": 1805,
      "arabino": 1806,
      "Ġintermediate": 1807,
      "membered": 1808,
      "Ġbenzoic": 1809,
      "Ġseroton": 1810,
      "sulfanyl": 1811,
      "ĠUsed": 1812,
      "Ġterpene": 1813,
      "substituted": 1814,
      "Ġsystem": 1815,
      "Ġentity": 1816,
      "Ġreaction": 1817,
      "carnitine": 1818,
      "renergic": 1819,
      "Ġfrag": 1820,
      "Ġsynthase": 1821,
      "Ġroots": 1822,
      "cy": 1823,
      "pyrimidine": 1824,
      "iol": 1825,
      "omyces": 1826,
      "hexadecanoyl": 1827,
      "Ġstraight": 1828,
      "Ġbridged": 1829,
      "furans": 1830,
      "Ġwhere": 1831,
      "aden": 1832,
      "sugar": 1833,
      "ination": 1834,
      "Ġce": 1835,
      "Ġtetrac": 1836,
      "Ġprotons": 1837,
      "ffec": 1838,
      "threonine": 1839,
      "kin": 1840,
      "icosatetra": 1841,
      "ĠMyc": 1842,
      "urea": 1843,
      "Ġnitrile": 1844,
      "Ġditerpene": 1845,
      "thal": 1846,
      "Ġskelet": 1847,
      "hydroperoxy": 1848,
      "galactopyranosyl": 1849,
      "ĠPenicill": 1850,
      "Ġstem": 1851,
      "ĠPenicillium": 1852,
      "icot": 1853,
      "Ġoxide": 1854,
      "idinium": 1855,
      "Ġoleoyl": 1856,
      "arachid": 1857,
      "Ġass": 1858,
      "Ġleukotriene": 1859,
      "ĠdTDP": 1860,
      "palmitoyl": 1861,
      "imal": 1862,
      "terone": 1863,
      "imidazole": 1864,
      "glutamine": 1865,
      "aR": 1866,
      "ceramide": 1867,
      "etino": 1868,
      "Ġrad": 1869,
      "Ġlignan": 1870,
      "anthr": 1871,
      "Ġradical": 1872,
      "Ġcaroten": 1873,
      "Ġdichloro": 1874,
      "ionic": 1875,
      "Ġhydroperoxy": 1876,
      "coumar": 1877,
      "Ġtetrap": 1878,
      "benzoate": 1879,
      "Ġdise": 1880,
      "gu": 1881,
      "Ġfree": 1882,
      "acr": 1883,
      "ental": 1884,
      "Ġhept": 1885,
      "tin": 1886,
      "propan": 1887,
      "Ġatoms": 1888,
      "olycyclic": 1889,
      "athione": 1890,
      "ho": 1891,
      "pro": 1892,
      "ism": 1893,
      "ithi": 1894,
      "ance": 1895,
      "neur": 1896,
      "ĠStreptomyces": 1897,
      "Ġsugar": 1898,
      "ĠCha": 1899,
      "cholest": 1900,
      "ifer": 1901,
      "etom": 1902,
      "atin": 1903,
      "Ġketo": 1904,
      "ating": 1905,
      "tereoc": 1906,
      "nitrop": 1907,
      "Ġhistological": 1908,
      "hym": 1909,
      "Ġvar": 1910,
      "iod": 1911,
      "Ġpres": 1912,
      "eryth": 1913,
      "branched": 1914,
      "gamma": 1915,
      "itic": 1916,
      "ns": 1917,
      "Ġchan": 1918,
      "Ġser": 1919,
      "ected": 1920,
      "ivalent": 1921,
      "Ġwhi": 1922,
      "Ġformula": 1923,
      "carboxamide": 1924,
      "Ġerg": 1925,
      "osynthe": 1926,
      "manno": 1927,
      "Ġparent": 1928,
      "cyclohex": 1929,
      "ute": 1930,
      "oss": 1931,
      "genin": 1932,
      "trihydroxy": 1933,
      "pe": 1934,
      "Ġso": 1935,
      "ard": 1936,
      "Ġconn": 1937,
      "Ġplate": 1938,
      "ross": 1939,
      "Ġsynthetic": 1940,
      "ĠChaetom": 1941,
      "ĠChaetomium": 1942,
      "acil": 1943,
      "Ġgrow": 1944,
      "terin": 1945,
      "aves": 1946,
      "Ġeffec": 1947,
      "Ġnemato": 1948,
      "Ġskeleton": 1949,
      "mun": 1950,
      "methionine": 1951,
      "ock": 1952,
      "Ġamo": 1953,
      "Ġepoxy": 1954,
      "Ġbiosynthe": 1955,
      "Ġnematode": 1956,
      "ous": 1957,
      "asp": 1958,
      "Ġphenolic": 1959,
      "Ġdodec": 1960,
      "thio": 1961,
      "Ġleaves": 1962,
      "arginine": 1963,
      "ime": 1964,
      "Ġoctadecanoic": 1965,
      "Ġmacrocycle": 1966,
      "Ġbis": 1967,
      "Ġdehydro": 1968,
      "sphingosine": 1969,
      "Ġamoun": 1970,
      "aem": 1971,
      "dep": 1972,
      "Ġul": 1973,
      "Ġ24": 1974,
      "octac": 1975,
      "azo": 1976,
      "Ġglycosyloxyflavone": 1977,
      "diamino": 1978,
      "ĠMajor": 1979,
      "27": 1980,
      "Ġcalc": 1981,
      "ore": 1982,
      "Ġanionic": 1983,
      "ketide": 1984,
      "Ġanthr": 1985,
      "histidine": 1986,
      "Ġxanthones": 1987,
      "Ġgrowth": 1988,
      "ĠK": 1989,
      "Ġmorph": 1990,
      "Ġcomb": 1991,
      "osphing": 1992,
      "odilator": 1993,
      "steroidal": 1994,
      "Ġwhile": 1995,
      "fic": 1996,
      "Ġdop": 1997,
      "tetracos": 1998,
      "Ġvol": 1999,
      "Ġnucleoside": 2000,
      "Ġmacrol": 2001,
      "Ġdimethoxy": 2002,
      "+)": 2003,
      "ers": 2004,
      "benzofurans": 2005,
      "acont": 2006,
      "regn": 2007,
      "glucuronide": 2008,
      ".).": 2009,
      "diox": 2010,
      "Ġpyridines": 2011,
      "Manp": 2012,
      "hal": 2013,
      "anone": 2014,
      "ulose": 2015,
      "ĠMar": 2016,
      "Ġribonucleoside": 2017,
      "opeptide": 2018,
      "Ġsever": 2019,
      "propanoic": 2020,
      "ording": 2021,
      "fucosyl": 2022,
      "Ġamounts": 2023,
      "Ġty": 2024,
      "Ġbu": 2025,
      "Ġdocosanoid": 2026,
      "Ġdichlorobenzene": 2027,
      "cul": 2028,
      "Ġmod": 2029,
      "triazine": 2030,
      "ĠMarvin": 2031,
      "Ġ0": 2032,
      "Ġman": 2033,
      "olipid": 2034,
      "Ġsta": 2035,
      "tions": 2036,
      "hydroxyl": 2037,
      "imolar": 2038,
      "ries": 2039,
      "Ġorganobrom": 2040,
      "ureas": 2041,
      "Ġallylic": 2042,
      "according": 2043,
      "Ġconnected": 2044,
      "Ġmacrolide": 2045,
      "Ġorganobromine": 2046,
      "nel": 2047,
      "uronic": 2048,
      "Ġbacter": 2049,
      "cur": 2050,
      "amental": 2051,
      "tahydro": 2052,
      "Ġcarc": 2053,
      "sulfonyl": 2054,
      "adienoyl": 2055,
      "Ġblood": 2056,
      "Ġcarbons": 2057,
      "-{[": 2058,
      "Ġequimolar": 2059,
      "Ġhomo": 2060,
      "Ġgibberellin": 2061,
      "Ġhem": 2062,
      "docosahexaenoic": 2063,
      "nes": 2064,
      "Ġes": 2065,
      "Ġang": 2066,
      "Ġindol": 2067,
      "Ġindoles": 2068,
      "Ġglucos": 2069,
      "atile": 2070,
      "idase": 2071,
      "ents": 2072,
      "Glu": 2073,
      "uronosyl": 2074,
      "Ġvolatile": 2075,
      "sil": 2076,
      "erties": 2077,
      "olu": 2078,
      "Ġtripeptide": 2079,
      "Ġantihyp": 2080,
      "Ġcentral": 2081,
      "ain": 2082,
      "nary": 2083,
      "stereoisomer": 2084,
      "Ġortho": 2085,
      "Ġolean": 2086,
      "Ġhexasaccharide": 2087,
      "Ġaniline": 2088,
      "29": 2089,
      "factor": 2090,
      "lud": 2091,
      "enol": 2092,
      "ica": 2093,
      "Ġacross": 2094,
      "imino": 2095,
      "Ġtetradec": 2096,
      "Ġcinnamate": 2097,
      "Ġcatechols": 2098,
      "rogen": 2099,
      "Ġoil": 2100,
      "Ġbenzene": 2101,
      "Ġbenzamides": 2102,
      "Ġproperties": 2103,
      "Ġproduct": 2104,
      "Ġimmun": 2105,
      "Ġoxygen": 2106,
      "Ġundec": 2107,
      "Ġisopropyl": 2108,
      "Ġfund": 2109,
      "Ġstereoc": 2110,
      "Ġhydroxymethyl": 2111,
      "Ġbutan": 2112,
      "onucleotide": 2113,
      "Ġblock": 2114,
      "Ġfundamental": 2115,
      "HIV": 2116,
      "esc": 2117,
      "Ġ22": 2118,
      "Ġhypo": 2119,
      "acontapenta": 2120,
      "edioic": 2121,
      "Ġbiosynthesis": 2122,
      "Ġana": 2123,
      "Ġanimal": 2124,
      "tial": 2125,
      "Ġrat": 2126,
      "rone": 2127,
      "carboxylate": 2128,
      "hane": 2129,
      "ĠHIV": 2130,
      "phenoxy": 2131,
      "Ġnaphtha": 2132,
      "ertensive": 2133,
      "inal": 2134,
      "Ġca": 2135,
      "icyclo": 2136,
      "Ġpre": 2137,
      "Ġacetic": 2138,
      "Ġantigen": 2139,
      "Ġpyrid": 2140,
      "Ġ[(": 2141,
      "homom": 2142,
      "osphingosine": 2143,
      "-,": 2144,
      "99": 2145,
      "amycin": 2146,
      "Ġinfec": 2147,
      "Ġ21": 2148,
      "ocarb": 2149,
      "tetradec": 2150,
      "Ġtetrahydro": 2151,
      "dodec": 2152,
      "ofuranose": 2153,
      "osporin": 2154,
      "ge": 2155,
      "mal": 2156,
      "Ġcarbob": 2157,
      "Ġcofactor": 2158,
      "Ġsequentially": 2159,
      "ffe": 2160,
      "Ġantihypertensive": 2161,
      "luding": 2162,
      "phy": 2163,
      "poly": 2164,
      "ĠJ": 2165,
      "Ġpolycyclic": 2166,
      "glycoside": 2167,
      "hanes": 2168,
      "isoflavone": 2169,
      "ormone": 2170,
      "Ġcytotoxicity": 2171,
      "chlorophenyl": 2172,
      "Ġnatural": 2173,
      "valine": 2174,
      "olesterol": 2175,
      "Ġcarries": 2176,
      "Ġtriol": 2177,
      "Ġcarbobicyclic": 2178,
      "sin": 2179,
      "Ġiron": 2180,
      "Ġacts": 2181,
      "Ġbetaine": 2182,
      "ioid": 2183,
      "Ġethanol": 2184,
      "obase": 2185,
      "acosanoic": 2186,
      "Ġnucleobase": 2187,
      "Ġguai": 2188,
      "ribonucleoside": 2189,
      "Cer": 2190,
      "isole": 2191,
      "Ġsem": 2192,
      "ulator": 2193,
      "adrenergic": 2194,
      "Ġquater": 2195,
      "Ġdimethyl": 2196,
      "icosatrienoic": 2197,
      "dichl": 2198,
      "dichloro": 2199,
      "ram": 2200,
      "Ġmu": 2201,
      "Ġgall": 2202,
      "Ġglycyl": 2203,
      "Ġfurans": 2204,
      "Ġchannel": 2205,
      "Ġcarcinogenic": 2206,
      "nia": 2207,
      "anol": 2208,
      "Ġbark": 2209,
      "Ġtrihydroxyflavone": 2210,
      "imidazol": 2211,
      "anthra": 2212,
      "Ġpolyprenyl": 2213,
      "Ġcyclooxygenase": 2214,
      "Ġfungus": 2215,
      "Ġglucosiduronic": 2216,
      "ll": 2217,
      "str": 2218,
      "orn": 2219,
      "orcin": 2220,
      "Ġthio": 2221,
      "ylethanolamine": 2222,
      "azepine": 2223,
      "stearoyl": 2224,
      "guan": 2225,
      "Ġquaternary": 2226,
      "HETE": 2227,
      "ities": 2228,
      "xide": 2229,
      "Ġfood": 2230,
      "ital": 2231,
      "Ġhormone": 2232,
      "Ġtrianion": 2233,
      "Ġcholest": 2234,
      "arachidonoyl": 2235,
      "oline": 2236,
      "octadecenoyl": 2237,
      "GalNAc": 2238,
      "Ġflavone": 2239,
      "Ġdisulf": 2240,
      "Ġcycloprop": 2241,
      "linked": 2242,
      "Ġultra": 2243,
      "Ġchol": 2244,
      "Ġcyan": 2245,
      "octadecanoic": 2246,
      "Ġhexadecanoyl": 2247,
      "uvic": 2248,
      "ble": 2249,
      "ril": 2250,
      "olen": 2251,
      "ases": 2252,
      "hydroxyflavanone": 2253,
      "omethyl": 2254,
      "galactosaminyl": 2255,
      "Ġflavonoid": 2256,
      "furo": 2257,
      "Ġpyran": 2258,
      "Ġresorcin": 2259,
      "pyridin": 2260,
      "naphthyl": 2261,
      "renol": 2262,
      "dis": 2263,
      "art": 2264,
      "ketone": 2265,
      "Ġgalactosamine": 2266,
      "Ġincluding": 2267,
      "Ac": 2268,
      "gr": 2269,
      "Ġup": 2270,
      "Ġchlorine": 2271,
      "hexaenoic": 2272,
      "phosphor": 2273,
      "glucuronic": 2274,
      "lactam": 2275,
      "ylen": 2276,
      "onol": 2277,
      "idino": 2278,
      "Ġmal": 2279,
      "Ġtop": 2280,
      "amido": 2281,
      "Ġlact": 2282,
      "Ġglob": 2283,
      "ĠDNA": 2284,
      "Ġpolyketide": 2285,
      "Ġcoord": 2286,
      "butanoyl": 2287,
      "sulfoamino": 2288,
      "itrans": 2289,
      "biphenyl": 2290,
      "lo": 2291,
      "Ġund": 2292,
      "inamide": 2293,
      "roprotective": 2294,
      "GlcN": 2295,
      "Ġmethylene": 2296,
      "formyl": 2297,
      "Ġquinazol": 2298,
      "HP": 2299,
      "Ġaer": 2300,
      "Ġwas": 2301,
      "ĠCDP": 2302,
      "acetylcholinesterase": 2303,
      "Ġgalactose": 2304,
      "naphthalene": 2305,
      "fr": 2306,
      "diaz": 2307,
      "ĠDaph": 2308,
      "Ġpara": 2309,
      "Ġoxidation": 2310,
      "Ġseveral": 2311,
      "Ġps": 2312,
      "oll": 2313,
      "Ġvit": 2314,
      "ulfonate": 2315,
      "Ġactivities": 2316,
      "chin": 2317,
      "Ġcomprised": 2318,
      "heptadec": 2319,
      "Ġbromo": 2320,
      "Ġfragment": 2321,
      "Ġy": 2322,
      "type": 2323,
      "Ġpyrazoles": 2324,
      "transfer": 2325,
      "''-": 2326,
      "ie": 2327,
      "isation": 2328,
      "Ġmyo": 2329,
      "Ġpot": 2330,
      "diphospho": 2331,
      "hig": 2332,
      "Ġtricarboxylic": 2333,
      "opyranuronosyl": 2334,
      "galactoside": 2335,
      "sulfate": 2336,
      "Ġtriphosphate": 2337,
      "Ġmonomethoxybenzene": 2338,
      "Ġserotonergic": 2339,
      "ĠDaphnia": 2340,
      "Ġpalmitoyl": 2341,
      "aricide": 2342,
      "hydr": 2343,
      "flavanones": 2344,
      "ribose": 2345,
      "Ġhydroxylation": 2346,
      "50": 2347,
      "receptor": 2348,
      "Ġ-": 2349,
      "osa": 2350,
      "oserine": 2351,
      "Ġhap": 2352,
      "ement": 2353,
      "aven": 2354,
      "butanoic": 2355,
      "cinn": 2356,
      "Ġscaven": 2357,
      "anthraquinone": 2358,
      "dicarboxylic": 2359,
      "ting": 2360,
      "Ġchlor": 2361,
      "Ġrac": 2362,
      "ocarboxylic": 2363,
      "Ġglycol": 2364,
      "Ġcoun": 2365,
      "icosa": 2366,
      "Ġcore": 2367,
      "thiazol": 2368,
      "asparag": 2369,
      "Ġimidazol": 2370,
      "Ġorganosulfonate": 2371,
      "Ġarachidonic": 2372,
      "Ġcarotenoid": 2373,
      "Ġdisease": 2374,
      "aler": 2375,
      "Ġpyrimid": 2376,
      "carbamoyl": 2377,
      "thm": 2378,
      "Ġbile": 2379,
      "Ġglutathione": 2380,
      "acetate": 2381,
      "transferase": 2382,
      "aur": 2383,
      "yel": 2384,
      "inol": 2385,
      "hydroxymethyl": 2386,
      "Ġtry": 2387,
      "Ġphthal": 2388,
      "Ġglycerol": 2389,
      "Ġcontaining": 2390,
      "Ġcalcium": 2391,
      "32": 2392,
      "Ġmix": 2393,
      "Ġtyp": 2394,
      "ort": 2395,
      "ocyclic": 2396,
      "yrist": 2397,
      "Ġnicot": 2398,
      "imidin": 2399,
      "Ġphosphodi": 2400,
      "Ġcyano": 2401,
      "Ġspong": 2402,
      "hepta": 2403,
      "Ġcepha": 2404,
      "aemp": 2405,
      "ple": 2406,
      "saccharide": 2407,
      "sipeptide": 2408,
      "Ġhexa": 2409,
      "iss": 2410,
      "Ġandrost": 2411,
      "Ġacaricide": 2412,
      "orphy": 2413,
      "Ġnot": 2414,
      "amines": 2415,
      "Ġmonophosphate": 2416,
      "deoxyribonucleoside": 2417,
      "Ġcationic": 2418,
      "Ġimidazoles": 2419,
      "Ġtyrosine": 2420,
      "idyl": 2421,
      "umour": 2422,
      "dimethylamino": 2423,
      "alkane": 2424,
      "Ġparts": 2425,
      "isoflav": 2426,
      "arabin": 2427,
      "tilb": 2428,
      "anthene": 2429,
      "OH": 2430,
      "ogen": 2431,
      "esthe": 2432,
      "Ġfive": 2433,
      "Ġfactor": 2434,
      "hydroxyacyl": 2435,
      "emethyl": 2436,
      "Ġ26": 2437,
      "oplasma": 2438,
      "Ġneuroprotective": 2439,
      "Ġvasodilator": 2440,
      "pic": 2441,
      "xin": 2442,
      "ĠV": 2443,
      "Ġbro": 2444,
      "hydroxyethyl": 2445,
      "phosphatidyl": 2446,
      "Ġtricyclic": 2447,
      "fucose": 2448,
      "ĠMycoplasma": 2449,
      "isoleucine": 2450,
      "Ġaerial": 2451,
      "eed": 2452,
      "ferol": 2453,
      "Ġ23": 2454,
      "benzothi": 2455,
      "docosapentaenoic": 2456,
      "Ġsucc": 2457,
      "aempferol": 2458,
      "33": 2459,
      "Fuc": 2460,
      "pl": 2461,
      "ĠZ": 2462,
      "Ġenoate": 2463,
      "Ġcl": 2464,
      "ath": 2465,
      "trac": 2466,
      "Ġlactam": 2467,
      "hemis": 2468,
      "Ġgenital": 2469,
      "ycline": 2470,
      "Ġpolymer": 2471,
      "Ġfru": 2472,
      "anilic": 2473,
      "Ġoctasaccharide": 2474,
      "Ġicosanoid": 2475,
      "Ġcholestanoid": 2476,
      "Ġsponge": 2477,
      "bicyclic": 2478,
      "Ġpalmit": 2479,
      "Ġsix": 2480,
      "Ġsalic": 2481,
      "ates": 2482,
      "ĠAr": 2483,
      "Ġcob": 2484,
      "ucleotide": 2485,
      "tradiol": 2486,
      "Ġresorcinols": 2487,
      "Ġhapten": 2488,
      "Ġgenitalium": 2489,
      "Ġent": 2490,
      "itrile": 2491,
      "ophyt": 2492,
      "-),": 2493,
      "Ġheterobicyclic": 2494,
      "adienoic": 2495,
      "bromo": 2496,
      "linolen": 2497,
      "][": 2498,
      "ii": 2499,
      "rys": 2500,
      "ish": 2501,
      "Ġthym": 2502,
      "olines": 2503,
      "ammonium": 2504,
      "Ġald": 2505,
      "diphosphate": 2506,
      "imide": 2507,
      "Ġcardi": 2508,
      "Ġglucose": 2509,
      "Ġguanosine": 2510,
      "phosphono": 2511,
      "aspiro": 2512,
      "HT": 2513,
      "atechin": 2514,
      "oci": 2515,
      "chalc": 2516,
      "Ġnerv": 2517,
      "detic": 2518,
      "Ġkaempferol": 2519,
      "Ġbenzenes": 2520,
      "fluorophenyl": 2521,
      "ically": 2522,
      "assium": 2523,
      "glyceride": 2524,
      "pressant": 2525,
      "depsipeptide": 2526,
      "asparagine": 2527,
      "Ġhig": 2528,
      "osterol": 2529,
      "alan": 2530,
      "opterin": 2531,
      "Ġmag": 2532,
      "Ġhepar": 2533,
      "Ġhydr": 2534,
      "deoxychol": 2535,
      "osphatidylethanolamine": 2536,
      "Ġangio": 2537,
      "cle": 2538,
      "nar": 2539,
      "Ġgr": 2540,
      "Ġmolecular": 2541,
      "orb": 2542,
      "inoid": 2543,
      "hexanoic": 2544,
      "Ġpyrrole": 2545,
      "Ġcyanine": 2546,
      "octadecanoyl": 2547,
      "Ġfuran": 2548,
      "Ġplatelet": 2549,
      "Ġanaesthe": 2550,
      "Ġinfections": 2551,
      "hemistry": 2552,
      "icin": 2553,
      "Ġdin": 2554,
      "Ġsym": 2555,
      "idec": 2556,
      "ammon": 2557,
      "phatic": 2558,
      "oxazol": 2559,
      "emb": 2560,
      "Ġmonoester": 2561,
      "glucosiduronic": 2562,
      "Ġspiro": 2563,
      "Ġcyclodepsipeptide": 2564,
      "Ġdihydroxyflavone": 2565,
      "ex": 2566,
      "ven": 2567,
      "ylmethyl": 2568,
      "Ġmale": 2569,
      "carinic": 2570,
      "Ġdimethoxybenzene": 2571,
      "Ġoleanane": 2572,
      "Ġcoordination": 2573,
      "HE": 2574,
      "be": 2575,
      "iphatic": 2576,
      "mur": 2577,
      "pa": 2578,
      "Ġuse": 2579,
      "Ġsim": 2580,
      "ack": 2581,
      "Ġaliphatic": 2582,
      "tically": 2583,
      "roth": 2584,
      "aminic": 2585,
      "dihydroxyphenyl": 2586,
      "Ġpropionic": 2587,
      "double": 2588,
      "rhamnosyl": 2589,
      "Ġfluoresc": 2590,
      "Ġhemi": 2591,
      "fruct": 2592,
      "AMP": 2593,
      "greg": 2594,
      "ike": 2595,
      "tor": 2596,
      "active": 2597,
      "ocon": 2598,
      "Ġhydrox": 2599,
      "acterium": 2600,
      "Ġacetylen": 2601,
      "uctase": 2602,
      "cyclopropyl": 2603,
      "Ġlinoleic": 2604,
      "Ġhigh": 2605,
      "ehal": 2606,
      "ylidene": 2607,
      "ocar": 2608,
      "dimethoxy": 2609,
      "Ġaggreg": 2610,
      "hexacos": 2611,
      "Ġrepeat": 2612,
      "ynthetic": 2613,
      "ĠGly": 2614,
      "Ġbutyric": 2615,
      "Ġpiperidine": 2616,
      "opyrimidine": 2617,
      "Ġdisulfide": 2618,
      "Ġvitamin": 2619,
      "Ġtype": 2620,
      "losporin": 2621,
      "inolic": 2622,
      "Ġdes": 2623,
      "otope": 2624,
      "Ġantis": 2625,
      "Ġbroad": 2626,
      "inated": 2627,
      "Ġchi": 2628,
      "Ġpati": 2629,
      "Ġskin": 2630,
      "Ġascr": 2631,
      "oceramide": 2632,
      "ophenyl": 2633,
      "Ġlim": 2634,
      "aprenol": 2635,
      "monocarboxylic": 2636,
      "pyrimidin": 2637,
      "benzofuran": 2638,
      "Ġheterocyclic": 2639,
      "nown": 2640,
      "phenol": 2641,
      "prostaglandin": 2642,
      "oxoc": 2643,
      "hiz": 2644,
      "Ġlab": 2645,
      "flavonoid": 2646,
      "Ġphosphonic": 2647,
      "Ġcoral": 2648,
      "Ġglycosylated": 2649,
      "linkage": 2650,
      "Ġanthocyan": 2651,
      "Ġblocker": 2652,
      "Ġacetylenic": 2653,
      "ily": 2654,
      "ogenic": 2655,
      "vul": 2656,
      "Ġmit": 2657,
      "Ġbroth": 2658,
      "Ġsti": 2659,
      "Ġsed": 2660,
      "Ġsolv": 2661,
      "epi": 2662,
      "Ġalgal": 2663,
      "yrate": 2664,
      "triphosphate": 2665,
      "Ġreductase": 2666,
      "Ġreg": 2667,
      "Ġoptically": 2668,
      "cyt": 2669,
      "ociated": 2670,
      "Ġaggregation": 2671,
      "ication": 2672,
      "Ġsign": 2673,
      "alian": 2674,
      "hydroxyflavanones": 2675,
      "Ġretino": 2676,
      "phyl": 2677,
      "oxazoles": 2678,
      "embr": 2679,
      "Ġ25": 2680,
      "imidines": 2681,
      "igin": 2682,
      "oron": 2683,
      "Ġpyrazol": 2684,
      "pentyl": 2685,
      "uvate": 2686,
      "arabinopyran": 2687,
      "Ġanthrac": 2688,
      "homomethionine": 2689,
      "yristoyl": 2690,
      "ehalose": 2691,
      "modi": 2692,
      "Ġmul": 2693,
      "anec": 2694,
      "estradiol": 2695,
      "Ġacr": 2696,
      "Ġdicarb": 2697,
      "ora": 2698,
      "romb": 2699,
      "elic": 2700,
      "acylglycerol": 2701,
      "cotic": 2702,
      "Ġars": 2703,
      "mannopyranose": 2704,
      "ribosyl": 2705,
      "Ġfruit": 2706,
      "Ġanaesthetic": 2707,
      "Ġpatients": 2708,
      "suc": 2709,
      "Ġcap": 2710,
      "arr": 2711,
      "Ġloss": 2712,
      "Ġno": 2713,
      "ĠAl": 2714,
      "Ġplants": 2715,
      "trienoic": 2716,
      "Ġcholesterol": 2717,
      "caffe": 2718,
      "Ġheptadec": 2719,
      "estrogen": 2720,
      "Ġmuscarinic": 2721,
      "Ġhypoglyc": 2722,
      "Ġcephalosporin": 2723,
      "red": 2724,
      "}-": 2725,
      "Ġenzyme": 2726,
      "rod": 2727,
      "idal": 2728,
      "arate": 2729,
      "Ġdiester": 2730,
      "Ġalcoholic": 2731,
      "odiox": 2732,
      "Ġgalactosyl": 2733,
      "bisphosphate": 2734,
      "Ġpiperidines": 2735,
      "Ġhepat": 2736,
      "Ġmannose": 2737,
      "Ġbacteria": 2738,
      "Ġpotassium": 2739,
      "Ġsolvent": 2740,
      "'->": 2741,
      "af": 2742,
      "demethyl": 2743,
      "valent": 2744,
      "inc": 2745,
      "Ġpu": 2746,
      "acin": 2747,
      "inogen": 2748,
      "openta": 2749,
      "ular": 2750,
      "Ġaminopyrimidine": 2751,
      "Ġformyl": 2752,
      "Ġflavanone": 2753,
      "atetraenoyl": 2754,
      "Ġequivalent": 2755,
      "narcotic": 2756,
      "Neu": 2757,
      "OD": 2758,
      "per": 2759,
      "hel": 2760,
      "tes": 2761,
      "Ġtur": 2762,
      "cus": 2763,
      "etabolite": 2764,
      "take": 2765,
      "taining": 2766,
      "dienoic": 2767,
      "Ġval": 2768,
      "Ġsulfone": 2769,
      "icosanoic": 2770,
      "Ġnitrogens": 2771,
      "hytosphingosine": 2772,
      "apentaenoyl": 2773,
      "Ġserum": 2774,
      "Ġfluorescent": 2775,
      "cyste": 2776,
      "gic": 2777,
      "Ġmonofluoro": 2778,
      "androst": 2779,
      "Ġprotonated": 2780,
      "Ġtetraanion": 2781,
      "piperidine": 2782,
      "aniline": 2783,
      "methylhexadecasphinganine": 2784,
      "phosphonato": 2785,
      "neuraminyl": 2786,
      "nitrophenyl": 2787,
      "aleric": 2788,
      "Ġnervous": 2789,
      "'s": 2790,
      "39": 2791,
      "nor": 2792,
      "ĠIn": 2793,
      "idepressant": 2794,
      "Ġinositol": 2795,
      "ugh": 2796,
      "bitol": 2797,
      "Ġoxime": 2798,
      "mono": 2799,
      "thiazoles": 2800,
      "eud": 2801,
      "containing": 2802,
      "Ġcyclopent": 2803,
      "Ġoxidised": 2804,
      "Ġmuscle": 2805,
      "Ġstems": 2806,
      "Ġbuten": 2807,
      "GlcNS": 2808,
      "Ġem": 2809,
      "osterone": 2810,
      "Ġknown": 2811,
      "iodo": 2812,
      "almitic": 2813,
      "Ġprotease": 2814,
      "Ġsphingoid": 2815,
      "silon": 2816,
      "Ġscavenger": 2817,
      "Ġmulti": 2818,
      "Ġhypoglycemic": 2819,
      "CH": 2820,
      "din": 2821,
      "lip": 2822,
      "trol": 2823,
      "uber": 2824,
      "infec": 2825,
      "led": 2826,
      "Ġcult": 2827,
      "ana": 2828,
      "Ġserine": 2829,
      "Ġstilb": 2830,
      "Ġorigin": 2831,
      "Ġbeing": 2832,
      "Ġantidepressant": 2833,
      "glucopyranoside": 2834,
      "isoquinoline": 2835,
      "threo": 2836,
      "Ġdopamine": 2837,
      "diazenyl": 2838,
      "ay": 2839,
      "ativ": 2840,
      "urop": 2841,
      "val": 2842,
      "isopropyl": 2843,
      "Ġcat": 2844,
      "arnes": 2845,
      "ased": 2846,
      "Ġinv": 2847,
      "atus": 2848,
      "dioxo": 2849,
      "tical": 2850,
      "ouring": 2851,
      "piperidin": 2852,
      "Ġazo": 2853,
      "yricetin": 2854,
      "Ġguanidines": 2855,
      "naphthalenes": 2856,
      "Ġquinazolines": 2857,
      "Ġchiral": 2858,
      "ffer": 2859,
      "ticular": 2860,
      "ylate": 2861,
      "Ġpregn": 2862,
      "Ġmolecules": 2863,
      "termin": 2864,
      "Ġ28": 2865,
      "yrrole": 2866,
      "rops": 2867,
      "olybd": 2868,
      "Ġcoumar": 2869,
      "Ġacetal": 2870,
      "ible": 2871,
      "Ġuracil": 2872,
      "Ġpyrimidone": 2873,
      "ess": 2874,
      "hylen": 2875,
      "Ġmetabolism": 2876,
      "ulant": 2877,
      "acylcarnitine": 2878,
      "Ġphenolate": 2879,
      "indoles": 2880,
      "ietane": 2881,
      "linoleoyl": 2882,
      "dichlorophenyl": 2883,
      "Ġmuta": 2884,
      "Ġunderg": 2885,
      "Ġcounterion": 2886,
      "Ġmonofluorobenzenes": 2887,
      ");": 2888,
      "34": 2889,
      "Pro": 2890,
      "ss": 2891,
      "Ġisomer": 2892,
      "Ġpain": 2893,
      "dias": 2894,
      "ulos": 2895,
      "methylphenyl": 2896,
      "acetylglucosamine": 2897,
      "olytic": 2898,
      "triazol": 2899,
      "Ġbenzo": 2900,
      "Ġcoup": 2901,
      "tetradecanoyl": 2902,
      "Ġbromide": 2903,
      "embly": 2904,
      "Kdo": 2905,
      "pept": 2906,
      "Ġantitu": 2907,
      "yloxy": 2908,
      "enec": 2909,
      "osi": 2910,
      "Ġpenicill": 2911,
      "Ġradi": 2912,
      "tyros": 2913,
      "otoxin": 2914,
      "tetraenoic": 2915,
      "Ġmethanol": 2916,
      "Ġchalc": 2917,
      "octanoyl": 2918,
      "Ġassembly": 2919,
      "ticularly": 2920,
      "xi": 2921,
      "Ġquinoline": 2922,
      "ison": 2923,
      "Ġobs": 2924,
      "Ġmamm": 2925,
      "Ġcit": 2926,
      "anedi": 2927,
      "Ġpero": 2928,
      "ĠTr": 2929,
      "ucyl": 2930,
      "ĠADP": 2931,
      "ĠATP": 2932,
      "ronate": 2933,
      "abicyclo": 2934,
      "Ġtetrahydroxyflavone": 2935,
      "naphtho": 2936,
      "ophenes": 2937,
      "Ġrepeating": 2938,
      "Rha": 2939,
      "bu": 2940,
      "man": 2941,
      "ture": 2942,
      "Ġaff": 2943,
      "Ġmyricetin": 2944,
      "oxopent": 2945,
      "Ġlute": 2946,
      "Ġarenes": 2947,
      "Ġcarbotricyclic": 2948,
      "Ġstearoyl": 2949,
      "Ġabietane": 2950,
      "coumaric": 2951,
      "Ġtetrapeptide": 2952,
      "-{[(": 2953,
      "31": 2954,
      "Gly": 2955,
      "pat": 2956,
      "pur": 2957,
      "onium": 2958,
      "test": 2959,
      "Ġmost": 2960,
      "ĠII": 2961,
      "esis": 2962,
      "Ġbre": 2963,
      "Ġgre": 2964,
      "ars": 2965,
      "uppress": 2966,
      "ocy": 2967,
      "yridine": 2968,
      "Ġluc": 2969,
      "aminoethyl": 2970,
      "ious": 2971,
      "hexahydro": 2972,
      "Ġbenzothi": 2973,
      "Ġtriazoles": 2974,
      "abid": 2975,
      "obi": 2976,
      "obacterium": 2977,
      "Ġpropan": 2978,
      "oisomerase": 2979,
      "Ġchromogenic": 2980,
      "methylene": 2981,
      "Ġmonomethoxyflavone": 2982,
      "Ġmonohydroxybenzoic": 2983,
      "icosatetraenoic": 2984,
      "coumarin": 2985,
      "Ġcyanidin": 2986,
      "aine": 2987,
      "ded": 2988,
      "lact": 2989,
      "vel": 2990,
      "isphosphate": 2991,
      "Ġtuber": 2992,
      "Ġbron": 2993,
      "Ġdithi": 2994,
      "oxane": 2995,
      "trehalose": 2996,
      "octahydro": 2997,
      "imethoxy": 2998,
      "Ġsulfonic": 2999,
      "atriacontapenta": 3000,
      "Ġoctadecanoyl": 3001,
      "naphthalen": 3002,
      "Ġheptasaccharide": 3003,
      "chalcone": 3004,
      "Ġhydroxamic": 3005,
      "vuls": 3006,
      "Ġturn": 3007,
      "Ġureas": 3008,
      "onvuls": 3009,
      "Ġbiphenyl": 3010,
      "Ġger": 3011,
      "Ġgerm": 3012,
      "hythm": 3013,
      "romone": 3014,
      "Ġcommon": 3015,
      "Ġcomplex": 3016,
      "hexacyclic": 3017,
      "glycinate": 3018,
      "avir": 3019,
      "rose": 3020,
      "Ġbenzodiox": 3021,
      "pyrazol": 3022,
      "pyrazole": 3023,
      "Ġheterohexacyclic": 3024,
      "Ġzwitterionic": 3025,
      "Ġchronic": 3026,
      "dotri": 3027,
      "ketal": 3028,
      "Ġmacrocyclic": 3029,
      "geranyl": 3030,
      "icosatetraenoyl": 3031,
      "iferin": 3032,
      "Ġcombining": 3033,
      "Ġtopoisomerase": 3034,
      "ODE": 3035,
      "Ġoriginally": 3036,
      "onvulsant": 3037,
      "der": 3038,
      "Ġ=": 3039,
      "Ġfum": 3040,
      "Ġresp": 3041,
      "ĠDelta": 3042,
      "hexaenoyl": 3043,
      "able": 3044,
      "Ġoccur": 3045,
      "Ġdisord": 3046,
      "carp": 3047,
      "Ġshort": 3048,
      "Ġoxidase": 3049,
      "atetraenoic": 3050,
      "Ġsphingosine": 3051,
      "iodine": 3052,
      "ornith": 3053,
      "Ġmeta": 3054,
      "Ġmuc": 3055,
      "Ġtoxic": 3056,
      "osta": 3057,
      "Ġfused": 3058,
      "omyc": 3059,
      "oprotective": 3060,
      "diketone": 3061,
      "Ġdibenzo": 3062,
      "ĠAMP": 3063,
      "Ġoxac": 3064,
      "yst": 3065,
      "icosapentaenoic": 3066,
      "protein": 3067,
      "Ġpyrrolidin": 3068,
      "Ġanticonvulsant": 3069,
      "Ġantips": 3070,
      "Ġtetrapyrrole": 3071,
      "Ġuptake": 3072,
      "cinnamic": 3073,
      "isoflavones": 3074,
      "Ġdinucleotide": 3075,
      "Ġlimonoid": 3076,
      "38": 3077,
      "PE": 3078,
      "bi": 3079,
      "odeoxychol": 3080,
      "yg": 3081,
      "yle": 3082,
      "Ġer": 3083,
      "Ġfam": 3084,
      "Ġfuro": 3085,
      "Ġsial": 3086,
      "activ": 3087,
      "arin": 3088,
      "ycho": 3089,
      "Ġwater": 3090,
      "diamine": 3091,
      "Ġnu": 3092,
      "methylpent": 3093,
      "Ġdiphospho": 3094,
      "tereomer": 3095,
      "Ġbiological": 3096,
      "piperazin": 3097,
      "aspart": 3098,
      "GalpNAc": 3099,
      "Ġsuch": 3100,
      "arabinofuran": 3101,
      "Ġcyclopropanes": 3102,
      "atives": 3103,
      "ae": 3104,
      "ct": 3105,
      "fused": 3106,
      "igenin": 3107,
      "retino": 3108,
      "speci": 3109,
      "Ġir": 3110,
      "ĠIV": 3111,
      "ylcarbonyl": 3112,
      "osum": 3113,
      "olia": 3114,
      "oxop": 3115,
      "Ġsubs": 3116,
      "yryl": 3117,
      "Ġnum": 3118,
      "ilic": 3119,
      "Ġpolypeptide": 3120,
      "chromen": 3121,
      "pyranones": 3122,
      "uroyl": 3123,
      "ized": 3124,
      "ange": 3125,
      "Ġopioid": 3126,
      "Ġdehydrogenase": 3127,
      "hydroxylated": 3128,
      "Ġracem": 3129,
      "ammonio": 3130,
      "Ġanthocyanin": 3131,
      "Ġbutenolide": 3132,
      "Ġundergone": 3133,
      "ale": 3134,
      "mit": 3135,
      "mat": 3136,
      "thol": 3137,
      "Ġcan": 3138,
      "Ġcrops": 3139,
      "eric": 3140,
      "olich": 3141,
      "oco": 3142,
      "Ġwhole": 3143,
      "terocarp": 3144,
      "Ġhop": 3145,
      "ilone": 3146,
      "butan": 3147,
      "ĠGram": 3148,
      "Ġnitric": 3149,
      "Ġhistamine": 3150,
      "docosahexaenoyl": 3151,
      "Ġphenothi": 3152,
      "Ġmannosyl": 3153,
      "Ġlysoph": 3154,
      "adenosine": 3155,
      "Ġtetradecanoate": 3156,
      "Ġmixture": 3157,
      "Ġphosphodiester": 3158,
      "Ġchalcones": 3159,
      "Ġmammalian": 3160,
      "Ġbronch": 3161,
      "lipid": 3162,
      "Ġhy": 3163,
      "ylopyranose": 3164,
      "Ġcle": 3165,
      "Ġsol": 3166,
      "hyr": 3167,
      "Ġnig": 3168,
      "Ġdias": 3169,
      "rel": 3170,
      "acylglycine": 3171,
      "Ġsulfoxide": 3172,
      "ages": 3173,
      "octadecatri": 3174,
      "Ġadj": 3175,
      "Ġthromb": 3176,
      "Ġrever": 3177,
      "carylopyranose": 3178,
      "Ġmetal": 3179,
      "Ġazaph": 3180,
      "octacis": 3181,
      "Ġnicotinic": 3182,
      "Ġcobalt": 3183,
      "Ġluteolin": 3184,
      "35": 3185,
      "Ġmil": 3186,
      "anamycin": 3187,
      "ald": 3188,
      "arane": 3189,
      "Ġaspar": 3190,
      "ung": 3191,
      "ococ": 3192,
      "acylsphingosine": 3193,
      "inson": 3194,
      "benzodi": 3195,
      "Ġtrihydroxyflavanone": 3196,
      "Ġoctahydro": 3197,
      "Ġhexanoic": 3198,
      "Ġchar": 3199,
      "Ġblue": 3200,
      "apentaenoate": 3201,
      "cyclohexa": 3202,
      "glyceric": 3203,
      "Ġguaiac": 3204,
      "Ġandrostanoid": 3205,
      "Ġsuccinic": 3206,
      "Ġlabd": 3207,
      "roduc": 3208,
      "Ġculture": 3209,
      "Rhap": 3210,
      "Ġazaphilone": 3211,
      "EET": 3212,
      "otic": 3213,
      "olvin": 3214,
      "Ġascarylopyranose": 3215,
      "gla": 3216,
      "Ġlines": 3217,
      "ella": 3218,
      "Ġhexacosanoyl": 3219,
      "allyl": 3220,
      "Ġdisodium": 3221,
      "ofuranosyl": 3222,
      "Ġretinoid": 3223,
      "embrane": 3224,
      "Ġmutagen": 3225,
      "prenyl": 3226,
      "rg": 3227,
      "rance": 3228,
      "wn": 3229,
      "Ġderivatives": 3230,
      "Ġwit": 3231,
      "Ġwide": 3232,
      "opoly": 3233,
      "hexyl": 3234,
      "agent": 3235,
      "Ġselen": 3236,
      "icosanoyl": 3237,
      "Ġacetoxy": 3238,
      "dehydes": 3239,
      "Ġoxidative": 3240,
      "Ġproduction": 3241,
      "Ġterminus": 3242,
      "Ġlinoleoyl": 3243,
      "Ġeffects": 3244,
      "Ġimmunos": 3245,
      "Ġnaphthalenes": 3246,
      "Ġheparin": 3247,
      "Ġoxacycle": 3248,
      "Ġfamily": 3249,
      "ocoumar": 3250,
      "eal": 3251,
      "gibberellin": 3252,
      "myc": 3253,
      "polyc": 3254,
      "Ġ'": 3255,
      "Ġme": 3256,
      "omet": 3257,
      "Ġweed": 3258,
      "ocysteine": 3259,
      "oporphy": 3260,
      "ĠnM": 3261,
      "Ġglucu": 3262,
      "triol": 3263,
      "Ġseed": 3264,
      "Ġexten": 3265,
      "mannopyranosyl": 3266,
      "quinolines": 3267,
      "Ġrings": 3268,
      "Ġreagent": 3269,
      "Ġuridine": 3270,
      "undecaprenol": 3271,
      "Ġdocosanoic": 3272,
      "Ġmorpholines": 3273,
      "Ġthymidine": 3274,
      "doA": 3275,
      "rial": 3276,
      "ĠCoA": 3277,
      "Ġurea": 3278,
      "roph": 3279,
      "Ġmel": 3280,
      "Ġche": 3281,
      "ĠNA": 3282,
      "Ġmain": 3283,
      "Ġenamide": 3284,
      "ipin": 3285,
      "appa": 3286,
      "aphytosphingosine": 3287,
      "aminium": 3288,
      "Ġthiophosphate": 3289,
      "Ġreceptors": 3290,
      "ĠGDP": 3291,
      "carboxyethyl": 3292,
      "Ġcyclopropyl": 3293,
      "alkylpiperazine": 3294,
      "Ġnitrate": 3295,
      "heptose": 3296,
      "rhamnose": 3297,
      "linkages": 3298,
      "Ġgener": 3299,
      "Ġtetrol": 3300,
      "Ġquinolines": 3301,
      "Ġserotonin": 3302,
      "Ġassociated": 3303,
      "yelin": 3304,
      "Ġgermacr": 3305,
      "ychotic": 3306,
      "Ġracemate": 3307,
      "Ġlabdane": 3308,
      "Ara": 3309,
      "nos": 3310,
      "rap": 3311,
      "tase": 3312,
      "Ġeryth": 3313,
      "ono": 3314,
      "ence": 3315,
      "olane": 3316,
      "Ġgive": 3317,
      "orrin": 3318,
      "ame": 3319,
      "ecorrin": 3320,
      "opsis": 3321,
      "Ġ38": 3322,
      "diethyl": 3323,
      "gener": 3324,
      "rotoxin": 3325,
      "flavin": 3326,
      "sulfonic": 3327,
      "hexadecenoyl": 3328,
      "propanoyl": 3329,
      "quinolin": 3330,
      "Ġbiaryl": 3331,
      "eutical": 3332,
      "Ġnitros": 3333,
      "Ġadenine": 3334,
      "otriose": 3335,
      "Ġferul": 3336,
      "Ġstereocent": 3337,
      "Ġsedative": 3338,
      "hylenedi": 3339,
      "ositive": 3340,
      "Ġantipsychotic": 3341,
      "Ġnumber": 3342,
      "polycis": 3343,
      "Ġextended": 3344,
      "ring": 3345,
      "xanthen": 3346,
      "ĠX": 3347,
      "isynthetic": 3348,
      "heum": 3349,
      "Ġmes": 3350,
      "Ġpig": 3351,
      "alin": 3352,
      "aller": 3353,
      "Ġgem": 3354,
      "Ġint": 3355,
      "Ġve": 3356,
      "lactic": 3357,
      "Ġpropyl": 3358,
      "Ġguanidino": 3359,
      "Ġsemisynthetic": 3360,
      "ophytoceramide": 3361,
      "Ġweeds": 3362,
      "allergic": 3363,
      "Lys": 3364,
      "nicot": 3365,
      "ues": 3366,
      "Ġmin": 3367,
      "olanes": 3368,
      "Ġantipar": 3369,
      "lasmodi": 3370,
      "iduronate": 3371,
      "lysyl": 3372,
      "methylhexadecaphytosphingosine": 3373,
      "III": 3374,
      "Ġundecaprenyl": 3375,
      "HPETE": 3376,
      "ygium": 3377,
      "Phe": 3378,
      "oz": 3379,
      "prol": 3380,
      "pregn": 3381,
      "Ġisop": 3382,
      "idopyranuronosyl": 3383,
      "Ġtumour": 3384,
      "icol": 3385,
      "tert": 3386,
      "Ġsub": 3387,
      "uracil": 3388,
      "Ġlan": 3389,
      "Ġantiinfec": 3390,
      "ilin": 3391,
      "ialdehyde": 3392,
      "Ġprol": 3393,
      "Ġleuk": 3394,
      "Ġglycosidically": 3395,
      "Ġcyclitol": 3396,
      "rhamnoside": 3397,
      "tensin": 3398,
      "Ġicosanoic": 3399,
      "sphinganine": 3400,
      "estrone": 3401,
      "Ġtest": 3402,
      "Ġphosphoryl": 3403,
      "Ġmycolic": 3404,
      "ĠMycobacterium": 3405,
      "ollow": 3406,
      "ishman": 3407,
      "arrhythm": 3408,
      "Ġstilbenoid": 3409,
      "diastereomer": 3410,
      "Ġbenzodioxoles": 3411,
      "Ġantiinfective": 3412,
      "AB": 3413,
      "IdoA": 3414,
      "Ġten": 3415,
      "onazole": 3416,
      "Ġisotope": 3417,
      "Ġprot": 3418,
      "Ġprostagland": 3419,
      "Ġfollow": 3420,
      "aldehydes": 3421,
      "iver": 3422,
      "Ġrati": 3423,
      "Ġalanine": 3424,
      "Ġ36": 3425,
      "Ġantipyr": 3426,
      "Ġinhibits": 3427,
      "Ġalkane": 3428,
      "Ġmonovalent": 3429,
      "Ġglucosyl": 3430,
      "Ġpropion": 3431,
      "Ġparticularly": 3432,
      "ophenone": 3433,
      "Ġantiplasmodi": 3434,
      "Ġfragrance": 3435,
      "Ġcombination": 3436,
      "Ġstereochemistry": 3437,
      "Ġgreen": 3438,
      "Ġprostaglandins": 3439,
      "Ġratio": 3440,
      "Ġantiplasmodial": 3441,
      "ail": 3442,
      "hr": 3443,
      "like": 3444,
      "oflavin": 3445,
      "ick": 3446,
      "anhydro": 3447,
      "anolide": 3448,
      "olig": 3449,
      "Ġdolich": 3450,
      "asmon": 3451,
      "ascaroside": 3452,
      "ect": 3453,
      "omes": 3454,
      "emia": 3455,
      "trum": 3456,
      "gli": 3457,
      "methylamino": 3458,
      "methylthio": 3459,
      "uth": 3460,
      "ĠAc": 3461,
      "Ġenal": 3462,
      "ĠOne": 3463,
      "ĠSe": 3464,
      "Ġtert": 3465,
      "Ġpolysaccharide": 3466,
      "Ġbiflavonoid": 3467,
      "Ġflavouring": 3468,
      "ocholic": 3469,
      "Ġiminium": 3470,
      "iana": 3471,
      "icarboxylate": 3472,
      "pyrrolidine": 3473,
      "Ġpresent": 3474,
      "Ġergost": 3475,
      "guanosine": 3476,
      "Fucp": 3477,
      "ĠTrip": 3478,
      "Ġtubercul": 3479,
      "Ġguaiacols": 3480,
      "ile": 3481,
      "ĠW": 3482,
      "Ġchl": 3483,
      "Ġcage": 3484,
      "amethyl": 3485,
      "hydroxybenzoic": 3486,
      "oximide": 3487,
      "Ġaldehyd": 3488,
      "Ġlack": 3489,
      "Ġtryp": 3490,
      "aza": 3491,
      "Ġpyrimidines": 3492,
      "hanolide": 3493,
      "octadecadienoyl": 3494,
      "glucosiduronate": 3495,
      "ĠBr": 3496,
      "atriacont": 3497,
      "phenylet": 3498,
      "Ġimidazole": 3499,
      "endent": 3500,
      "Ġlysine": 3501,
      "Ġcef": 3502,
      "nitrophenol": 3503,
      "Ġdodecanoate": 3504,
      "oluene": 3505,
      "cytidine": 3506,
      "Ġaffin": 3507,
      "AR": 3508,
      "DA": 3509,
      "DO": 3510,
      "cer": 3511,
      "ĠGl": 3512,
      "roid": 3513,
      "Ġmedi": 3514,
      "enti": 3515,
      "ideoxy": 3516,
      "opa": 3517,
      "azide": 3518,
      "methylsulfanyl": 3519,
      "hexanoyl": 3520,
      "tetrac": 3521,
      "ili": 3522,
      "phosphonate": 3523,
      "phosphoserine": 3524,
      "Ġtetracosanoyl": 3525,
      "Ġpyruvic": 3526,
      "agement": 3527,
      "Ġmonoamide": 3528,
      "ynur": 3529,
      "irst": 3530,
      "Ġglycosylglucose": 3531,
      "cinoma": 3532,
      "vinyl": 3533,
      "izine": 3534,
      "Ġnaphtho": 3535,
      "Ġorganosulfate": 3536,
      "Ġrelative": 3537,
      "Ġvarious": 3538,
      "Ġmanagement": 3539,
      "caffeic": 3540,
      "uppressive": 3541,
      "ornithine": 3542,
      "Ġimmunosuppressive": 3543,
      "')-": 3544,
      "37": 3545,
      "DNA": 3546,
      "ps": 3547,
      "ritis": 3548,
      "onia": 3549,
      "onitro": 3550,
      "Ġcysteine": 3551,
      "ice": 3552,
      "icine": 3553,
      "cum": 3554,
      "aria": 3555,
      "ors": 3556,
      "asm": 3557,
      "amid": 3558,
      "oxime": 3559,
      "terygium": 3560,
      "ucing": 3561,
      "Ġammon": 3562,
      "pectrum": 3563,
      "genesis": 3564,
      "Ġantile": 3565,
      "Ġdiamino": 3566,
      "Ġpyridinium": 3567,
      "trien": 3568,
      "Ġactivator": 3569,
      "Ġthiazol": 3570,
      "ptamine": 3571,
      "cein": 3572,
      "Ġions": 3573,
      "glucosinolic": 3574,
      "Ġmethanes": 3575,
      "ethioninate": 3576,
      "Ġrelax": 3577,
      "Ġpulex": 3578,
      "arnesyl": 3579,
      "olybdopterin": 3580,
      "Ġdiastereoisomer": 3581,
      "Ġoctahydronaphthalenes": 3582,
      "Ġintroduc": 3583,
      "ĠTripterygium": 3584,
      "EC": 3585,
      "ft": 3586,
      "morph": 3587,
      "har": 3588,
      "enten": 3589,
      "erate": 3590,
      "oxep": 3591,
      "taurine": 3592,
      "opioid": 3593,
      "diphenyl": 3594,
      "Ġvir": 3595,
      "Ġproges": 3596,
      "aminergic": 3597,
      "ĠUn": 3598,
      "crip": 3599,
      "neuraminic": 3600,
      "Ġhomodetic": 3601,
      "muramoyl": 3602,
      "Ġstim": 3603,
      "Ġarenesulfonic": 3604,
      "oligosaccharide": 3605,
      "Ala": 3606,
      "ean": 3607,
      "purine": 3608,
      "onitrile": 3609,
      "ĠIns": 3610,
      "ante": 3611,
      "Ġpost": 3612,
      "Ġsterol": 3613,
      "hydroxyoctadecanoic": 3614,
      "atum": 3615,
      "octa": 3616,
      "ations": 3617,
      "Ġamin": 3618,
      "imetic": 3619,
      "Ġacylated": 3620,
      "Ġmodi": 3621,
      "Ġbenzoyl": 3622,
      "Ġpolyether": 3623,
      "propanoate": 3624,
      "glutathione": 3625,
      "octadecenyl": 3626,
      "opropenyl": 3627,
      "thiazole": 3628,
      "selen": 3629,
      "terpene": 3630,
      "Ġisoquinoline": 3631,
      "ocyanidin": 3632,
      "Ġarachidonoyl": 3633,
      "anthranilic": 3634,
      "cholestane": 3635,
      "Ġdopaminergic": 3636,
      "stric": 3637,
      "Ġdisorders": 3638,
      "Ġchelator": 3639,
      "ABA": 3640,
      "DH": 3641,
      "dithi": 3642,
      "na": 3643,
      "Ġmeth": 3644,
      "anoc": 3645,
      "anedioic": 3646,
      "Ġperc": 3647,
      "Ġfumar": 3648,
      "Ġfirst": 3649,
      "hydride": 3650,
      "Ġ27": 3651,
      "uric": 3652,
      "rothi": 3653,
      "gluconic": 3654,
      "Ġdiphenyl": 3655,
      "Ġcarboxymethyl": 3656,
      "glycosid": 3657,
      "Ġorganonitro": 3658,
      "Ġconstitu": 3659,
      "pyrano": 3660,
      "Ġxanthene": 3661,
      "Ġphosphonate": 3662,
      "illin": 3663,
      "Ġpropane": 3664,
      "Ġoctanoic": 3665,
      "ermidine": 3666,
      "Ġquinolone": 3667,
      "ochromene": 3668,
      "Ġdiseases": 3669,
      "Ġangiogenesis": 3670,
      "oxocyclo": 3671,
      "anecarboxylic": 3672,
      "Ġdicarboximide": 3673,
      "ylethyl": 3674,
      "Ġwithanolide": 3675,
      "glioside": 3676,
      "Ġammonia": 3677,
      "Ġorganonitrogen": 3678,
      "GF": 3679,
      "ging": 3680,
      "gether": 3681,
      "pim": 3682,
      "way": 3683,
      "Ġmass": 3684,
      "enal": 3685,
      "Ġcembrane": 3686,
      "anglioside": 3687,
      "olan": 3688,
      "Ġsin": 3689,
      "romycin": 3690,
      "imer": 3691,
      "Ġaminoglycoside": 3692,
      "Ġoral": 3693,
      "actant": 3694,
      "Ġtogether": 3695,
      "hexose": 3696,
      "Ġthre": 3697,
      "Ġapo": 3698,
      "Ġshow": 3699,
      "heptac": 3700,
      "ostane": 3701,
      "Ġtryptophan": 3702,
      "linolenic": 3703,
      "Ġsympat": 3704,
      "fructofuranose": 3705,
      "Ġergostanoid": 3706,
      "Ġlacking": 3707,
      "Ġrelaxant": 3708,
      "glycosidic": 3709,
      "(+)": 3710,
      "inone": 3711,
      "idi": 3712,
      "Ġrange": 3713,
      "ocha": 3714,
      "glycerone": 3715,
      "mentation": 3716,
      "xylose": 3717,
      "rhamnopyranosyl": 3718,
      "Ġneuro": 3719,
      "pyrrolidin": 3720,
      "prov": 3721,
      "Ġmoderate": 3722,
      "Ġgallate": 3723,
      "oconstric": 3724,
      "Ġantituber": 3725,
      "Ġpenicillin": 3726,
      "specific": 3727,
      "arrhythmia": 3728,
      "ditrans": 3729,
      "ies": 3730,
      "kappa": 3731,
      "rinogen": 3732,
      "ual": 3733,
      "Ġanhydride": 3734,
      "onols": 3735,
      "Ġisov": 3736,
      "Ġpath": 3737,
      "Ġdivalent": 3738,
      "Ġgas": 3739,
      "Ġganglioside": 3740,
      "hydroquinone": 3741,
      "rome": 3742,
      "hydroxym": 3743,
      "ych": 3744,
      "omyelin": 3745,
      "epar": 3746,
      "dienoyl": 3747,
      "ulin": 3748,
      "Ġdiag": 3749,
      "deca": 3750,
      "Ġoxaspiro": 3751,
      "Ġmethylidene": 3752,
      "phosphop": 3753,
      "agulant": 3754,
      "thritis": 3755,
      "pyruvic": 3756,
      "sulfon": 3757,
      "Ġepsilon": 3758,
      "anthocyanidin": 3759,
      "ĠGABA": 3760,
      "orophen": 3761,
      "Ġdihydroxyflavanone": 3762,
      "fucopyranose": 3763,
      "ifolia": 3764,
      "Ġpoison": 3765,
      "Ġhypertens": 3766,
      "arylpiperazine": 3767,
      "Ġsoft": 3768,
      "Ġglobosum": 3769,
      "Ġsimple": 3770,
      "retinoic": 3771,
      "ococcus": 3772,
      "Ġpigment": 3773,
      "Ġtuberculosis": 3774,
      "Ġhypertension": 3775,
      "ID": 3776,
      "iqu": 3777,
      "ibitol": 3778,
      "kisphosphate": 3779,
      "ote": 3780,
      "oagulant": 3781,
      "py": 3782,
      "anensis": 3783,
      "Ġpor": 3784,
      "escein": 3785,
      "Ġdel": 3786,
      "ace": 3787,
      "phthal": 3788,
      "osylceramide": 3789,
      "Ġglycophytoceramide": 3790,
      "opyranoside": 3791,
      "Ġtetracosanoic": 3792,
      "Ġthiophenes": 3793,
      "Ġoligonucleotide": 3794,
      "Ġtranscrip": 3795,
      "octadeca": 3796,
      "Ġchrys": 3797,
      "Ġbiom": 3798,
      "Ġbiot": 3799,
      "acetamide": 3800,
      "Ġcytocha": 3801,
      "Ġurs": 3802,
      "Ġlocal": 3803,
      "ific": 3804,
      "opyridine": 3805,
      "ocyanate": 3806,
      "Ġanticoagulant": 3807,
      "icosatrienoate": 3808,
      "adenosyl": 3809,
      "Ġmodulator": 3810,
      "Ġphthalic": 3811,
      "Ġpyrroles": 3812,
      "terminal": 3813,
      "oconstrictor": 3814,
      "Ġantitubercular": 3815,
      "Ġcytochalas": 3816,
      "ATP": 3817,
      "Val": 3818,
      "iant": 3819,
      "mes": 3820,
      "pr": 3821,
      "Ġadi": 3822,
      "ons": 3823,
      "Ġmolar": 3824,
      "Ġcyste": 3825,
      "Ġintr": 3826,
      "Ġribitol": 3827,
      "Ġthan": 3828,
      "unic": 3829,
      "emetic": 3830,
      "ophy": 3831,
      "ophenol": 3832,
      "char": 3833,
      "Ġantiemetic": 3834,
      "oxobut": 3835,
      "Ġheart": 3836,
      "pyrid": 3837,
      "hloric": 3838,
      "Ġmonoanion": 3839,
      "benzoquinones": 3840,
      "Ġorganoiodine": 3841,
      "glutamate": 3842,
      "Ġantimetabolite": 3843,
      "Ġcytosine": 3844,
      "keto": 3845,
      "didehydro": 3846,
      "docosahexaenoate": 3847,
      "Ġsphingomyelin": 3848,
      "Ġphyto": 3849,
      "Ġfermentation": 3850,
      "cyclohexyl": 3851,
      "octacos": 3852,
      "testinal": 3853,
      "odeoxycholic": 3854,
      "Ġglucuron": 3855,
      "ishmanial": 3856,
      "Ġdolichyl": 3857,
      "Ġantileishmanial": 3858,
      "KDO": 3859,
      "bil": 3860,
      "myristoyl": 3861,
      "positive": 3862,
      "ule": 3863,
      "ĠGlu": 3864,
      "tel": 3865,
      "teen": 3866,
      "Ġpes": 3867,
      "alised": 3868,
      "ortic": 3869,
      "tria": 3870,
      "Ġ34": 3871,
      "azone": 3872,
      "ĠAla": 3873,
      "last": 3874,
      "aviral": 3875,
      "Ġdepress": 3876,
      "phosphonic": 3877,
      "idinone": 3878,
      "Ġseco": 3879,
      "ammarane": 3880,
      "sulfonate": 3881,
      "Ġoligopeptide": 3882,
      "ĠMan": 3883,
      "Ġadrenergic": 3884,
      "Ġphenylalanine": 3885,
      "minis": 3886,
      "Ġanticoron": 3887,
      "dependent": 3888,
      "alaninate": 3889,
      "succ": 3890,
      "Ġpregnane": 3891,
      "activated": 3892,
      "ozo": 3893,
      "kappaB": 3894,
      "Ġsimplest": 3895,
      "Ġanticoronaviral": 3896,
      "00": 3897,
      "[(": 3898,
      "iti": 3899,
      "tis": 3900,
      "Ġec": 3901,
      "ida": 3902,
      "ethylene": 3903,
      "Ġphe": 3904,
      "Ġditrans": 3905,
      "Ġrice": 3906,
      "oxacin": 3907,
      "Ġsur": 3908,
      "dibenzo": 3909,
      "Ġlat": 3910,
      "Ġresolvin": 3911,
      "Ġtridec": 3912,
      "bityl": 3913,
      "Ġvaleric": 3914,
      "Ġproanthocyanidin": 3915,
      "Ġmonoterpene": 3916,
      "Ġcarcinoma": 3917,
      "Ġphospholipid": 3918,
      "Ġphenylacetic": 3919,
      "nitril": 3920,
      "Ġhydrochloric": 3921,
      "Ġfurther": 3922,
      "Ġsulfuric": 3923,
      "nona": 3924,
      "Ġnaturally": 3925,
      "olving": 3926,
      "cholestan": 3927,
      "Ġeffect": 3928,
      "phosphoryl": 3929,
      "Ġpalmitoleic": 3930,
      "reducing": 3931,
      "Ġhepatoprotective": 3932,
      "androstane": 3933,
      "Ġluciferin": 3934,
      "antethe": 3935,
      "Ġshows": 3936,
      "charged": 3937,
      "Ins": 3938,
      "com": 3939,
      "calc": 3940,
      "ling": 3941,
      "of": 3942,
      "Ġantit": 3943,
      "Ġmore": 3944,
      "yll": 3945,
      "Ġacute": 3946,
      "hydroxyoctadec": 3947,
      "oxopropyl": 3948,
      "atho": 3949,
      "Ġlow": 3950,
      "ĠNF": 3951,
      "otrop": 3952,
      "other": 3953,
      "Ġoxolanes": 3954,
      "Ġglycopeptide": 3955,
      "Ġsteroidal": 3956,
      "agaro": 3957,
      "Ġseven": 3958,
      "tent": 3959,
      "furyl": 3960,
      "imidazoles": 3961,
      "Ġdodecanoic": 3962,
      "pentanoic": 3963,
      "atriaconta": 3964,
      "Ġglycosylgalactose": 3965,
      "Ġguanine": 3966,
      "Ġreduced": 3967,
      "Ġisoflavone": 3968,
      "ercap": 3969,
      "Ġpyrrolidine": 3970,
      "ophene": 3971,
      "Ġabund": 3972,
      "icosatrienoyl": 3973,
      "Ġlysyl": 3974,
      "Ġvariety": 3975,
      "Ġstain": 3976,
      "Ġlactol": 3977,
      "Ġgeranyl": 3978,
      "Ġcommonly": 3979,
      "Ġreverse": 3980,
      "Ġantipyretic": 3981,
      "Ġmediator": 3982,
      "anocidal": 3983,
      "Ġpathway": 3984,
      "antetheine": 3985,
      "agarofuran": 3986,
      "36": 3987,
      "NO": 3988,
      "xanth": 3989,
      "Ġabs": 3990,
      "inane": 3991,
      "leukotriene": 3992,
      "hys": 3993,
      "titis": 3994,
      "Ġcarbox": 3995,
      "Ġcarboxyl": 3996,
      "Ġtrip": 3997,
      "Ġhydroxyisoflavone": 3998,
      "Ġdiaryl": 3999
    },
    "merges": [
      [
        "Ġ",
        "a"
      ],
      [
        "r",
        "o"
      ],
      [
        "i",
        "n"
      ],
      [
        "i",
        "s"
      ],
      [
        "Ġa",
        "n"
      ],
      [
        "o",
        "n"
      ],
      [
        "l",
        "e"
      ],
      [
        "h",
        "e"
      ],
      [
        "t",
        "e"
      ],
      [
        "Ġ",
        "is"
      ],
      [
        "i",
        "d"
      ],
      [
        "Ġ",
        "o"
      ],
      [
        "Ġ",
        "m"
      ],
      [
        "Ġ",
        "t"
      ],
      [
        "h",
        "a"
      ],
      [
        "Ġ",
        "I"
      ],
      [
        "t",
        "i"
      ],
      [
        "ĠI",
        "t"
      ],
      [
        "y",
        "l"
      ],
      [
        "e",
        "n"
      ],
      [
        "Ġo",
        "f"
      ],
      [
        "Ġ",
        "c"
      ],
      [
        "e",
        "t"
      ],
      [
        "o",
        "s"
      ],
      [
        "i",
        "c"
      ],
      [
        "a",
        "n"
      ],
      [
        "Ġan",
        "d"
      ],
      [
        "Ġ",
        "p"
      ],
      [
        "e",
        "r"
      ],
      [
        "e",
        "s"
      ],
      [
        "o",
        "l"
      ],
      [
        "Ġa",
        "c"
      ],
      [
        "Ġ",
        "b"
      ],
      [
        "Ġt",
        "he"
      ],
      [
        "Ġ",
        "f"
      ],
      [
        "o",
        "le"
      ],
      [
        "Ġ",
        "d"
      ],
      [
        "Ġ",
        "s"
      ],
      [
        "a",
        "l"
      ],
      [
        "Ġac",
        "id"
      ],
      [
        "c",
        "u"
      ],
      [
        "a",
        "te"
      ],
      [
        "Ġ",
        "T"
      ],
      [
        "Ġ",
        "g"
      ],
      [
        "a",
        "c"
      ],
      [
        "a",
        "r"
      ],
      [
        "ĠT",
        "he"
      ],
      [
        "ole",
        "cu"
      ],
      [
        "Ġm",
        "olecu"
      ],
      [
        "Ġmolecu",
        "le"
      ],
      [
        "h",
        "y"
      ],
      [
        "x",
        "y"
      ],
      [
        "in",
        "e"
      ],
      [
        "hy",
        "d"
      ],
      [
        "ti",
        "on"
      ],
      [
        "et",
        "a"
      ],
      [
        "hyd",
        "ro"
      ],
      [
        "o",
        "r"
      ],
      [
        "ro",
        "m"
      ],
      [
        "u",
        "p"
      ],
      [
        "i",
        "t"
      ],
      [
        "Ġ",
        "ha"
      ],
      [
        "Ġg",
        "ro"
      ],
      [
        "Ġgro",
        "up"
      ],
      [
        "Ġc",
        "on"
      ],
      [
        "id",
        "e"
      ],
      [
        "Ġa",
        "s"
      ],
      [
        "a",
        "s"
      ],
      [
        "Ġa",
        "t"
      ],
      [
        "Ġha",
        "s"
      ],
      [
        "a",
        "m"
      ],
      [
        "Ġf",
        "rom"
      ],
      [
        "p",
        "ha"
      ],
      [
        "e",
        "c"
      ],
      [
        "hydro",
        "xy"
      ],
      [
        "Ġ",
        "in"
      ],
      [
        "y",
        "c"
      ],
      [
        "i",
        "te"
      ],
      [
        "Ġ",
        "ro"
      ],
      [
        "u",
        "g"
      ],
      [
        "o",
        "m"
      ],
      [
        "Ġro",
        "le"
      ],
      [
        ")",
        "-"
      ],
      [
        "i",
        "v"
      ],
      [
        "Ġ",
        "("
      ],
      [
        "Ġ",
        "r"
      ],
      [
        "in",
        "g"
      ],
      [
        "et",
        "h"
      ],
      [
        "er",
        "iv"
      ],
      [
        "Ġd",
        "eriv"
      ],
      [
        "ar",
        "b"
      ],
      [
        "en",
        "t"
      ],
      [
        "p",
        "h"
      ],
      [
        "Ġt",
        "ha"
      ],
      [
        "Ġtha",
        "t"
      ],
      [
        "o",
        "x"
      ],
      [
        "b",
        "ol"
      ],
      [
        "a",
        "t"
      ],
      [
        "eta",
        "bol"
      ],
      [
        "Ġm",
        "etabol"
      ],
      [
        "i",
        "tion"
      ],
      [
        "j",
        "ug"
      ],
      [
        "Ġmetabol",
        "ite"
      ],
      [
        "jug",
        "ate"
      ],
      [
        "Ġcon",
        "jugate"
      ],
      [
        "Ġ",
        "w"
      ],
      [
        "Ġb",
        "y"
      ],
      [
        "os",
        "ition"
      ],
      [
        "te",
        "r"
      ],
      [
        "u",
        "n"
      ],
      [
        "e",
        "d"
      ],
      [
        "in",
        "o"
      ],
      [
        "o",
        "xy"
      ],
      [
        "u",
        "c"
      ],
      [
        "e",
        "m"
      ],
      [
        "e",
        "p"
      ],
      [
        "Ġ",
        "1"
      ],
      [
        "Ġp",
        "osition"
      ],
      [
        "eth",
        "yl"
      ],
      [
        "t",
        "r"
      ],
      [
        "Ġ",
        "2"
      ],
      [
        "g",
        "l"
      ],
      [
        "t",
        "a"
      ],
      [
        "Ġa",
        "l"
      ],
      [
        "o",
        "c"
      ],
      [
        "as",
        "e"
      ],
      [
        "Ġderiv",
        "es"
      ],
      [
        "on",
        "e"
      ],
      [
        "o",
        "p"
      ],
      [
        "Ġs",
        "u"
      ],
      [
        "Ġ",
        "3"
      ],
      [
        "a",
        "tion"
      ],
      [
        "b",
        "er"
      ],
      [
        "d",
        "i"
      ],
      [
        "h",
        "i"
      ],
      [
        "u",
        "r"
      ],
      [
        "ti",
        "v"
      ],
      [
        "em",
        "ber"
      ],
      [
        "i",
        "on"
      ],
      [
        "Ġm",
        "ember"
      ],
      [
        "y",
        "r"
      ],
      [
        "ti",
        "c"
      ],
      [
        "u",
        "m"
      ],
      [
        "-",
        "("
      ],
      [
        "Ġa",
        "m"
      ],
      [
        "ic",
        "h"
      ],
      [
        "en",
        "o"
      ],
      [
        "ti",
        "t"
      ],
      [
        "b",
        "s"
      ],
      [
        "an",
        "o"
      ],
      [
        "tit",
        "u"
      ],
      [
        "Ġb",
        "ase"
      ],
      [
        "c",
        "ha"
      ],
      [
        "he",
        "n"
      ],
      [
        "os",
        "pha"
      ],
      [
        "Ġc",
        "om"
      ],
      [
        ")",
        "."
      ],
      [
        "bs",
        "titu"
      ],
      [
        "Ġ",
        "l"
      ],
      [
        "Ġr",
        "es"
      ],
      [
        "Ġw",
        "h"
      ],
      [
        "tiv",
        "e"
      ],
      [
        "Ġc",
        "arb"
      ],
      [
        "Ġwh",
        "ich"
      ],
      [
        "Ġcom",
        "p"
      ],
      [
        "Ġsu",
        "bstitu"
      ],
      [
        "p",
        "ec"
      ],
      [
        "u",
        "l"
      ],
      [
        "un",
        "d"
      ],
      [
        "en",
        "z"
      ],
      [
        "yc",
        "l"
      ],
      [
        "ospha",
        "te"
      ],
      [
        "Ġa",
        "g"
      ],
      [
        "ox",
        "yl"
      ],
      [
        "g",
        "en"
      ],
      [
        "ate",
        "d"
      ],
      [
        "Ġt",
        "r"
      ],
      [
        "Ġ",
        "n"
      ],
      [
        "o",
        "und"
      ],
      [
        "i",
        "m"
      ],
      [
        "t",
        "y"
      ],
      [
        "Ġgroup",
        "s"
      ],
      [
        "ro",
        "t"
      ],
      [
        "u",
        "s"
      ],
      [
        "r",
        "ide"
      ],
      [
        "te",
        "d"
      ],
      [
        "an",
        "t"
      ],
      [
        "Ġ",
        "hydroxy"
      ],
      [
        "oxyl",
        "ic"
      ],
      [
        "Ġam",
        "ino"
      ],
      [
        "Ġ",
        "7"
      ],
      [
        "b",
        "eta"
      ],
      [
        "Ġm",
        "on"
      ],
      [
        "-",
        ">"
      ],
      [
        "Ġo",
        "r"
      ],
      [
        "a",
        "z"
      ],
      [
        "Ġcomp",
        "ound"
      ],
      [
        "Ġ",
        "N"
      ],
      [
        "at",
        "ty"
      ],
      [
        "rot",
        "on"
      ],
      [
        "Ġ",
        "4"
      ],
      [
        "Ġan",
        "ti"
      ],
      [
        "te",
        "ro"
      ],
      [
        "b",
        "it"
      ],
      [
        "os",
        "yl"
      ],
      [
        "ac",
        "cha"
      ],
      [
        "m",
        "ethyl"
      ],
      [
        "Ġf",
        "atty"
      ],
      [
        "al",
        "pha"
      ],
      [
        "u",
        "t"
      ],
      [
        "Ġf",
        "or"
      ],
      [
        "hi",
        "bit"
      ],
      [
        "gl",
        "uc"
      ],
      [
        "ac",
        "t"
      ],
      [
        "pec",
        "i"
      ],
      [
        "Ġd",
        "i"
      ],
      [
        "ine",
        "d"
      ],
      [
        "Ġor",
        "g"
      ],
      [
        "Ġsubstitu",
        "ted"
      ],
      [
        "os",
        "e"
      ],
      [
        "Ġg",
        "l"
      ],
      [
        "Ġag",
        "ent"
      ],
      [
        "is",
        "t"
      ],
      [
        "ar",
        "y"
      ],
      [
        "it",
        "h"
      ],
      [
        "q",
        "u"
      ],
      [
        "Ġ",
        "L"
      ],
      [
        "d",
        "ec"
      ],
      [
        "Ġt",
        "o"
      ],
      [
        "o",
        "A"
      ],
      [
        "he",
        "x"
      ],
      [
        "accha",
        "ride"
      ],
      [
        "Ġ",
        "5"
      ],
      [
        "arb",
        "oxylic"
      ],
      [
        "C",
        "oA"
      ],
      [
        "Ġw",
        "ith"
      ],
      [
        "Ġs",
        "peci"
      ],
      [
        "l",
        "y"
      ],
      [
        "es",
        "ter"
      ],
      [
        "f",
        "l"
      ],
      [
        "Ġ",
        "A"
      ],
      [
        "ph",
        "osphate"
      ],
      [
        "am",
        "ino"
      ],
      [
        "ro",
        "p"
      ],
      [
        "om",
        "er"
      ],
      [
        "ycl",
        "ic"
      ],
      [
        "Ġal",
        "pha"
      ],
      [
        "-",
        ")."
      ],
      [
        "h",
        "ol"
      ],
      [
        "r",
        "e"
      ],
      [
        "Ġb",
        "eta"
      ],
      [
        "a",
        "tive"
      ],
      [
        "te",
        "tr"
      ],
      [
        "Ġp",
        "h"
      ],
      [
        "roton",
        "ation"
      ],
      [
        "l",
        "as"
      ],
      [
        "Ġ",
        "C"
      ],
      [
        "am",
        "ine"
      ],
      [
        "Ġo",
        "b"
      ],
      [
        "ta",
        "ined"
      ],
      [
        "Ġob",
        "tained"
      ],
      [
        "Ġposition",
        "s"
      ],
      [
        "Ġcarb",
        "oxy"
      ],
      [
        "b",
        "enz"
      ],
      [
        "gl",
        "yc"
      ],
      [
        "Ġan",
        "ion"
      ],
      [
        "hen",
        "yl"
      ],
      [
        "Ġm",
        "a"
      ],
      [
        "Ġfor",
        "m"
      ],
      [
        "on",
        "d"
      ],
      [
        "Ġderiv",
        "ative"
      ],
      [
        "Ġ",
        "ester"
      ],
      [
        "Ġb",
        "e"
      ],
      [
        "Ġ",
        "hydro"
      ],
      [
        "i",
        "g"
      ],
      [
        "en",
        "e"
      ],
      [
        "o",
        "t"
      ],
      [
        "a",
        "v"
      ],
      [
        "Ġorg",
        "an"
      ],
      [
        "g",
        "al"
      ],
      [
        "e",
        "l"
      ],
      [
        "os",
        "ph"
      ],
      [
        "Ġin",
        "hibit"
      ],
      [
        "Ġo",
        "x"
      ],
      [
        "Ġm",
        "ethyl"
      ],
      [
        "Ġd",
        "ep"
      ],
      [
        "j",
        "or"
      ],
      [
        "e",
        "ro"
      ],
      [
        "Ġp",
        "H"
      ],
      [
        "Ġinhibit",
        "or"
      ],
      [
        "Ġ",
        "e"
      ],
      [
        "id",
        "u"
      ],
      [
        "Ġ",
        "h"
      ],
      [
        "Ġac",
        "yl"
      ],
      [
        "i",
        "um"
      ],
      [
        "Ġdep",
        "rotonation"
      ],
      [
        "Ġspeci",
        "es"
      ],
      [
        "Ġma",
        "jor"
      ],
      [
        "yr",
        "an"
      ],
      [
        "d",
        "e"
      ],
      [
        "i",
        "l"
      ],
      [
        "he",
        "r"
      ],
      [
        "Ġ",
        "en"
      ],
      [
        "Ġ",
        "6"
      ],
      [
        "et",
        "yl"
      ],
      [
        "Ġres",
        "idu"
      ],
      [
        "Ġmon",
        "oc"
      ],
      [
        "Ġp",
        "l"
      ],
      [
        "h",
        "l"
      ],
      [
        "Ġgl",
        "yc"
      ],
      [
        "i",
        "p"
      ],
      [
        "ep",
        "t"
      ],
      [
        "i",
        "a"
      ],
      [
        "an",
        "s"
      ],
      [
        "tero",
        "id"
      ],
      [
        "Ġbe",
        "en"
      ],
      [
        "Ġpl",
        "ant"
      ],
      [
        "Ġha",
        "v"
      ],
      [
        "d",
        "en"
      ],
      [
        "os",
        "ide"
      ],
      [
        "Ġ",
        "D"
      ],
      [
        "op",
        "yran"
      ],
      [
        "ac",
        "etyl"
      ],
      [
        "i",
        "al"
      ],
      [
        "eth",
        "oxy"
      ],
      [
        "Ġorgan",
        "ic"
      ],
      [
        "ac",
        "yl"
      ],
      [
        "o",
        "yl"
      ],
      [
        "ol",
        "ated"
      ],
      [
        "ro",
        "s"
      ],
      [
        "c",
        "o"
      ],
      [
        "Ġmonoc",
        "arboxylic"
      ],
      [
        "an",
        "e"
      ],
      [
        "Ġ",
        "v"
      ],
      [
        "Ġ",
        "E"
      ],
      [
        "'",
        "-"
      ],
      [
        "a",
        "p"
      ],
      [
        "Ġ",
        "k"
      ],
      [
        "i",
        "o"
      ],
      [
        "o",
        "ro"
      ],
      [
        "id",
        "ine"
      ],
      [
        "ul",
        "f"
      ],
      [
        "l",
        "f"
      ],
      [
        "ox",
        "o"
      ],
      [
        "r",
        "p"
      ],
      [
        "in",
        "s"
      ],
      [
        "Ġsu",
        "lf"
      ],
      [
        "ano",
        "ic"
      ],
      [
        "ite",
        "rp"
      ],
      [
        "eno",
        "id"
      ],
      [
        "Ġh",
        "um"
      ],
      [
        "Ġ",
        "he"
      ],
      [
        "Ġhum",
        "an"
      ],
      [
        "Ġcon",
        "s"
      ],
      [
        "gal",
        "act"
      ],
      [
        "hex",
        "a"
      ],
      [
        "ph",
        "osph"
      ],
      [
        "ro",
        "n"
      ],
      [
        "Ġ",
        "O"
      ],
      [
        "Ġhydro",
        "gen"
      ],
      [
        "glyc",
        "ero"
      ],
      [
        "Ġa",
        "r"
      ],
      [
        "ol",
        "y"
      ],
      [
        "Ġ",
        "tetr"
      ],
      [
        "Ġcons",
        "ist"
      ],
      [
        "Ġhav",
        "ing"
      ],
      [
        "co",
        "hol"
      ],
      [
        "Ġal",
        "cohol"
      ],
      [
        "he",
        "d"
      ],
      [
        "Ġph",
        "osphate"
      ],
      [
        "Ġox",
        "o"
      ],
      [
        "Ġr",
        "ep"
      ],
      [
        "Ġs",
        "teroid"
      ],
      [
        "Ġform",
        "al"
      ],
      [
        "Ġsubstitu",
        "ent"
      ],
      [
        "fl",
        "av"
      ],
      [
        "Ġan",
        "t"
      ],
      [
        "Ġ",
        "S"
      ],
      [
        "l",
        "ac"
      ],
      [
        "Ġm",
        "o"
      ],
      [
        "ul",
        "t"
      ],
      [
        "r",
        "ug"
      ],
      [
        "in",
        "k"
      ],
      [
        "p",
        "henyl"
      ],
      [
        "Ġ",
        "ter"
      ],
      [
        "at",
        "ur"
      ],
      [
        "Ġp",
        "yr"
      ],
      [
        "an",
        "ion"
      ],
      [
        "las",
        "s"
      ],
      [
        "am",
        "ide"
      ],
      [
        "Ġc",
        "lass"
      ],
      [
        "ano",
        "yl"
      ],
      [
        "tr",
        "i"
      ],
      [
        "id",
        "in"
      ],
      [
        "r",
        "i"
      ],
      [
        "a",
        "g"
      ],
      [
        "cha",
        "in"
      ],
      [
        "Ġrep",
        "lac"
      ],
      [
        "den",
        "s"
      ],
      [
        "eno",
        "ic"
      ],
      [
        "Ġp",
        "ro"
      ],
      [
        "Ġres",
        "ult"
      ],
      [
        "Ġis",
        "olated"
      ],
      [
        "iterp",
        "enoid"
      ],
      [
        "Ġcon",
        "dens"
      ],
      [
        "Ġcondens",
        "ation"
      ],
      [
        "le",
        "n"
      ],
      [
        "Ġb",
        "enz"
      ],
      [
        "Ġreplac",
        "ed"
      ],
      [
        "is",
        "ing"
      ],
      [
        "Ġs",
        "e"
      ],
      [
        "am",
        "in"
      ],
      [
        "c",
        "arb"
      ],
      [
        "o",
        "id"
      ],
      [
        "qu",
        "in"
      ],
      [
        "Ġ",
        "it"
      ],
      [
        "ac",
        "ter"
      ],
      [
        "Ġp",
        "r"
      ],
      [
        "hen",
        "ol"
      ],
      [
        "Ġ",
        "et"
      ],
      [
        "t",
        "ac"
      ],
      [
        "Ġd",
        "rug"
      ],
      [
        "m",
        "on"
      ],
      [
        "ha",
        "n"
      ],
      [
        "Ġt",
        "w"
      ],
      [
        "tive",
        "ly"
      ],
      [
        "Ġp",
        "oly"
      ],
      [
        "atur",
        "ated"
      ],
      [
        "Ġresidu",
        "e"
      ],
      [
        "s",
        "n"
      ],
      [
        "Ġe",
        "x"
      ],
      [
        "Ġres",
        "pec"
      ],
      [
        "Ġrespec",
        "tively"
      ],
      [
        "t",
        "h"
      ],
      [
        "Ġs",
        "ec"
      ],
      [
        "Ġtw",
        "o"
      ],
      [
        "Ġl",
        "ink"
      ],
      [
        "1",
        "0"
      ],
      [
        "a",
        "tic"
      ],
      [
        "t",
        "he"
      ],
      [
        "an",
        "ti"
      ],
      [
        "1",
        "1"
      ],
      [
        "al",
        "t"
      ],
      [
        "p",
        "yr"
      ],
      [
        "op",
        "las"
      ],
      [
        "anti",
        "omer"
      ],
      [
        "Ġsec",
        "ond"
      ],
      [
        "Ġk",
        "et"
      ],
      [
        "ro",
        "l"
      ],
      [
        "os",
        "amine"
      ],
      [
        "on",
        "g"
      ],
      [
        "Ġsecond",
        "ary"
      ],
      [
        "y",
        "s"
      ],
      [
        "ole",
        "s"
      ],
      [
        "os",
        "accharide"
      ],
      [
        "ta",
        "dec"
      ],
      [
        "us",
        "ed"
      ],
      [
        "eno",
        "yl"
      ],
      [
        "Ġal",
        "k"
      ],
      [
        "Ġconsist",
        "ing"
      ],
      [
        "an",
        "n"
      ],
      [
        "ept",
        "ide"
      ],
      [
        "ĠE",
        "C"
      ],
      [
        "hl",
        "or"
      ],
      [
        "it",
        "ro"
      ],
      [
        "Ġmon",
        "o"
      ],
      [
        "Ġc",
        "o"
      ],
      [
        "it",
        "y"
      ],
      [
        "te",
        "n"
      ],
      [
        "Ġant",
        "ine"
      ],
      [
        "oplas",
        "tic"
      ],
      [
        "Ġs",
        "alt"
      ],
      [
        "Ġf",
        "un"
      ],
      [
        "Ġantine",
        "oplastic"
      ],
      [
        "Ġc",
        "ar"
      ],
      [
        "b",
        "ut"
      ],
      [
        "am",
        "m"
      ],
      [
        "Ġf",
        "l"
      ],
      [
        "s",
        "aturated"
      ],
      [
        "Ġ",
        "one"
      ],
      [
        "acter",
        "ial"
      ],
      [
        "Ġa",
        "rom"
      ],
      [
        "s",
        "ulf"
      ],
      [
        "Ġat",
        "tac"
      ],
      [
        "Ġet",
        "her"
      ],
      [
        "Ġarom",
        "atic"
      ],
      [
        "Ġattac",
        "hed"
      ],
      [
        "benz",
        "o"
      ],
      [
        "p",
        "osition"
      ],
      [
        "1",
        "4"
      ],
      [
        "Ġ",
        "hyd"
      ],
      [
        "de",
        "oxy"
      ],
      [
        "m",
        "e"
      ],
      [
        "is",
        "accharide"
      ],
      [
        "-",
        ")"
      ],
      [
        "io",
        "tic"
      ],
      [
        "b",
        "iotic"
      ],
      [
        "Ġa",
        "re"
      ],
      [
        "on",
        "ic"
      ],
      [
        "Ġhe",
        "tero"
      ],
      [
        "an",
        "c"
      ],
      [
        "Ġac",
        "tiv"
      ],
      [
        "ac",
        "yclic"
      ],
      [
        "on",
        "ist"
      ],
      [
        "Ġket",
        "one"
      ],
      [
        "Ġ",
        "used"
      ],
      [
        "hexa",
        "dec"
      ],
      [
        "Ġresult",
        "ing"
      ],
      [
        "1",
        "2"
      ],
      [
        "Ġex",
        "hibit"
      ],
      [
        "ic",
        "os"
      ],
      [
        "m",
        "ent"
      ],
      [
        "Ġcon",
        "ta"
      ],
      [
        "el",
        "l"
      ],
      [
        "Ġt",
        "hi"
      ],
      [
        "un",
        "saturated"
      ],
      [
        "us",
        "e"
      ],
      [
        "ti",
        "ary"
      ],
      [
        "Ġter",
        "tiary"
      ],
      [
        "Ġb",
        "ond"
      ],
      [
        "an",
        "ine"
      ],
      [
        "Ġen",
        "antiomer"
      ],
      [
        "as",
        "accharide"
      ],
      [
        "1",
        "3"
      ],
      [
        "phosph",
        "o"
      ],
      [
        "G",
        "l"
      ],
      [
        "Ġ",
        "x"
      ],
      [
        "Ġar",
        "ising"
      ],
      [
        "a",
        "ph"
      ],
      [
        "Ġin",
        "d"
      ],
      [
        "at",
        "or"
      ],
      [
        "Ġo",
        "l"
      ],
      [
        "az",
        "ol"
      ],
      [
        "o",
        "di"
      ],
      [
        "uc",
        "le"
      ],
      [
        "fl",
        "u"
      ],
      [
        "en",
        "yl"
      ],
      [
        "ycl",
        "o"
      ],
      [
        "Ġol",
        "ig"
      ],
      [
        "ic",
        "al"
      ],
      [
        "Ġresidu",
        "es"
      ],
      [
        "Ġconta",
        "ins"
      ],
      [
        "f",
        "i"
      ],
      [
        "u",
        "b"
      ],
      [
        "y",
        "n"
      ],
      [
        "Ġoxo",
        "anion"
      ],
      [
        "p",
        "rop"
      ],
      [
        "gluc",
        "opyran"
      ],
      [
        "Ġtr",
        "i"
      ],
      [
        "Ġorg",
        "ano"
      ],
      [
        "Ġt",
        "a"
      ],
      [
        "Ġdi",
        "phosphate"
      ],
      [
        "r",
        "es"
      ],
      [
        "er",
        "g"
      ],
      [
        "Ġ",
        "ep"
      ],
      [
        "-",
        "["
      ],
      [
        "Ġmo",
        "use"
      ],
      [
        "os",
        "ine"
      ],
      [
        "fi",
        "ed"
      ],
      [
        "Ġactiv",
        "ity"
      ],
      [
        "Ġp",
        "ent"
      ],
      [
        "1",
        "5"
      ],
      [
        "Ġpr",
        "im"
      ],
      [
        "N",
        "A"
      ],
      [
        "Ġprim",
        "ary"
      ],
      [
        "c",
        "h"
      ],
      [
        "Ġp",
        "henol"
      ],
      [
        "on",
        "es"
      ],
      [
        "m",
        "ann"
      ],
      [
        "Ġcarb",
        "oxylic"
      ],
      [
        "ter",
        "ion"
      ],
      [
        "p",
        "t"
      ],
      [
        "Ġl",
        "ong"
      ],
      [
        "Ġc",
        "yclic"
      ],
      [
        "Ġ",
        "z"
      ],
      [
        "Ġ",
        "8"
      ],
      [
        "Ġ",
        "M"
      ],
      [
        "f",
        "ur"
      ],
      [
        "Ġhyd",
        "ride"
      ],
      [
        "im",
        "id"
      ],
      [
        "c",
        "hol"
      ],
      [
        "han",
        "ol"
      ],
      [
        "Ġac",
        "et"
      ],
      [
        "oc",
        "os"
      ],
      [
        "Ġtr",
        "ans"
      ],
      [
        "c",
        "e"
      ],
      [
        "Ġd",
        "o"
      ],
      [
        "i",
        "r"
      ],
      [
        "hl",
        "oro"
      ],
      [
        "Ġn",
        "on"
      ],
      [
        "Ġexhibit",
        "s"
      ],
      [
        "a",
        "b"
      ],
      [
        "ĠO",
        "H"
      ],
      [
        "Ġalk",
        "al"
      ],
      [
        "Ġn",
        "itro"
      ],
      [
        "en",
        "es"
      ],
      [
        "Ġolig",
        "osaccharide"
      ],
      [
        "Ġalkal",
        "oid"
      ],
      [
        "flav",
        "one"
      ],
      [
        "Gl",
        "c"
      ],
      [
        "ut",
        "omer"
      ],
      [
        "w",
        "it"
      ],
      [
        "Ġta",
        "utomer"
      ],
      [
        ")",
        ","
      ],
      [
        "tr",
        "a"
      ],
      [
        "Ġ",
        "P"
      ],
      [
        "ic",
        "arboxylic"
      ],
      [
        "qu",
        "en"
      ],
      [
        "r",
        "y"
      ],
      [
        "eta",
        "m"
      ],
      [
        "Ġgl",
        "uc"
      ],
      [
        "wit",
        "terion"
      ],
      [
        "it",
        "ol"
      ],
      [
        "a",
        "d"
      ],
      [
        "di",
        "hydro"
      ],
      [
        "Ġo",
        "c"
      ],
      [
        "an",
        "d"
      ],
      [
        "Ġspeci",
        "fied"
      ],
      [
        "Ġph",
        "osph"
      ],
      [
        "in",
        "es"
      ],
      [
        "Ġse",
        "quen"
      ],
      [
        "p",
        "ent"
      ],
      [
        "Ġm",
        "ethoxy"
      ],
      [
        "ur",
        "e"
      ],
      [
        "Ġz",
        "witterion"
      ],
      [
        "Ġc",
        "ation"
      ],
      [
        "m",
        "ethoxy"
      ],
      [
        "+",
        ")."
      ],
      [
        "Ġtr",
        "iterpenoid"
      ],
      [
        "r",
        "ate"
      ],
      [
        "i",
        "b"
      ],
      [
        "1",
        "6"
      ],
      [
        "act",
        "one"
      ],
      [
        "e",
        "at"
      ],
      [
        "Ġb",
        "r"
      ],
      [
        "Ġc",
        "y"
      ],
      [
        "Ġx",
        "eno"
      ],
      [
        "ur",
        "ation"
      ],
      [
        "il",
        "l"
      ],
      [
        "tetr",
        "a"
      ],
      [
        "Ġ",
        "j"
      ],
      [
        "f",
        "ig"
      ],
      [
        "Ġp",
        "roton"
      ],
      [
        "Ġxeno",
        "biotic"
      ],
      [
        "fig",
        "uration"
      ],
      [
        "glycero",
        "l"
      ],
      [
        "ip",
        "er"
      ],
      [
        "gl",
        "ut"
      ],
      [
        "Ġ",
        "9"
      ],
      [
        "ph",
        "ing"
      ],
      [
        "id",
        "o"
      ],
      [
        "Ġhydrogen",
        "s"
      ],
      [
        "oc",
        "tadec"
      ],
      [
        "D",
        "P"
      ],
      [
        "t",
        "ha"
      ],
      [
        "]",
        "-"
      ],
      [
        "in",
        "d"
      ],
      [
        "di",
        "hydroxy"
      ],
      [
        "Ġam",
        "ide"
      ],
      [
        "ta",
        "g"
      ],
      [
        "f",
        "er"
      ],
      [
        "Ġsubstituent",
        "s"
      ],
      [
        "op",
        "rop"
      ],
      [
        "o",
        "b"
      ],
      [
        "ub",
        "le"
      ],
      [
        "Ġc",
        "or"
      ],
      [
        "o",
        "g"
      ],
      [
        "az",
        "ole"
      ],
      [
        "de",
        "hyd"
      ],
      [
        "Ġc",
        "er"
      ],
      [
        "g",
        "a"
      ],
      [
        "Ġo",
        "le"
      ],
      [
        "quin",
        "ol"
      ],
      [
        "1",
        "9"
      ],
      [
        "Ġsulf",
        "ate"
      ],
      [
        "enz",
        "y"
      ],
      [
        "Ġnitro",
        "gen"
      ],
      [
        "s",
        "c"
      ],
      [
        "ic",
        "yclic"
      ],
      [
        "v",
        "er"
      ],
      [
        "Ġcar",
        "ry"
      ],
      [
        "Ġlink",
        "ag"
      ],
      [
        "Ġan",
        "tag"
      ],
      [
        "az",
        "ine"
      ],
      [
        "Ġlink",
        "ed"
      ],
      [
        "Ġcarry",
        "ing"
      ],
      [
        "Ġa",
        "d"
      ],
      [
        "ant",
        "h"
      ],
      [
        "o",
        "w"
      ],
      [
        "s",
        "is"
      ],
      [
        "Ġantag",
        "onist"
      ],
      [
        "Ġc",
        "h"
      ],
      [
        "fur",
        "an"
      ],
      [
        "Ġr",
        "ing"
      ],
      [
        "ro",
        "c"
      ],
      [
        "Ġal",
        "l"
      ],
      [
        "ept",
        "or"
      ],
      [
        "enzy",
        "me"
      ],
      [
        "Ġ",
        "un"
      ],
      [
        "Ġ",
        "ion"
      ],
      [
        "Ġd",
        "e"
      ],
      [
        "ospha",
        "t"
      ],
      [
        "Ġsequen",
        "ce"
      ],
      [
        "i",
        "et"
      ],
      [
        "ic",
        "ide"
      ],
      [
        "ter",
        "e"
      ],
      [
        "gluc",
        "os"
      ],
      [
        "ec",
        "eptor"
      ],
      [
        "amin",
        "yl"
      ],
      [
        "Ġb",
        "acterial"
      ],
      [
        "a",
        "di"
      ],
      [
        "n",
        "e"
      ],
      [
        "ac",
        "h"
      ],
      [
        "yc",
        "es"
      ],
      [
        "Ġp",
        "henyl"
      ],
      [
        "is",
        "omer"
      ],
      [
        "an",
        "yl"
      ],
      [
        "Ġtr",
        "eat"
      ],
      [
        "gluc",
        "oside"
      ],
      [
        "di",
        "methyl"
      ],
      [
        "gen",
        "ic"
      ],
      [
        "NA",
        "c"
      ],
      [
        "in",
        "ic"
      ],
      [
        "Ġt",
        "h"
      ],
      [
        "osphat",
        "id"
      ],
      [
        "mon",
        "ium"
      ],
      [
        "x",
        "yl"
      ],
      [
        "al",
        "anine"
      ],
      [
        "on",
        "ate"
      ],
      [
        "Ġfl",
        "u"
      ],
      [
        "ys",
        "te"
      ],
      [
        "d",
        "ocos"
      ],
      [
        "Ġp",
        "rop"
      ],
      [
        "Ġphenol",
        "s"
      ],
      [
        "G",
        "al"
      ],
      [
        "ot",
        "h"
      ],
      [
        "p",
        "ar"
      ],
      [
        "e",
        "tic"
      ],
      [
        "1",
        "7"
      ],
      [
        "Ġj",
        "o"
      ],
      [
        "on",
        "yl"
      ],
      [
        "Ġ",
        "H"
      ],
      [
        "hlor",
        "ide"
      ],
      [
        "o",
        "d"
      ],
      [
        "dehyd",
        "e"
      ],
      [
        "Ġjo",
        "ined"
      ],
      [
        "'",
        ","
      ],
      [
        "Ġanti",
        "m"
      ],
      [
        "Ġr",
        "ed"
      ],
      [
        "M",
        "an"
      ],
      [
        "Ġtetr",
        "a"
      ],
      [
        "ro",
        "te"
      ],
      [
        "ĠI",
        "s"
      ],
      [
        "c",
        "tion"
      ],
      [
        "Ġd",
        "icarboxylic"
      ],
      [
        "al",
        "k"
      ],
      [
        "ac",
        "os"
      ],
      [
        "Ġdo",
        "uble"
      ],
      [
        "os",
        "id"
      ],
      [
        "os",
        "itol"
      ],
      [
        "t",
        "hi"
      ],
      [
        "Ġc",
        "ol"
      ],
      [
        "ano",
        "id"
      ],
      [
        "Ġpro",
        "d"
      ],
      [
        "Ġ",
        "on"
      ],
      [
        "Ġtr",
        "isaccharide"
      ],
      [
        "ĠIs",
        "olated"
      ],
      [
        "Ġ",
        "le"
      ],
      [
        "Ġb",
        "i"
      ],
      [
        "re",
        "e"
      ],
      [
        "Ġco",
        "enzyme"
      ],
      [
        "Ġcomp",
        "r"
      ],
      [
        "iet",
        "y"
      ],
      [
        "-[",
        "("
      ],
      [
        "o",
        "ur"
      ],
      [
        "ron",
        "ic"
      ],
      [
        "e",
        "u"
      ],
      [
        "c",
        "on"
      ],
      [
        "flav",
        "an"
      ],
      [
        "el",
        "ta"
      ],
      [
        "yn",
        "the"
      ],
      [
        "az",
        "oles"
      ],
      [
        "uc",
        "t"
      ],
      [
        "1",
        "8"
      ],
      [
        "Ġp",
        "rotonation"
      ],
      [
        "Ġd",
        "isaccharide"
      ],
      [
        "Ġ",
        "B"
      ],
      [
        "Ġtreat",
        "ment"
      ],
      [
        "Ġ",
        "hex"
      ],
      [
        "Ġ1",
        "7"
      ],
      [
        "gluc",
        "osamine"
      ],
      [
        "anc",
        "hed"
      ],
      [
        "Ġb",
        "oth"
      ],
      [
        "opyran",
        "ose"
      ],
      [
        "ator",
        "y"
      ],
      [
        "e",
        "v"
      ],
      [
        "Ġv",
        "ia"
      ],
      [
        "am",
        "ic"
      ],
      [
        "Ġacet",
        "ate"
      ],
      [
        "d",
        "o"
      ],
      [
        "Ġfun",
        "ction"
      ],
      [
        "Ġr",
        "eceptor"
      ],
      [
        "Ġpoly",
        "p"
      ],
      [
        "fl",
        "amm"
      ],
      [
        "Ġ",
        "G"
      ],
      [
        "hanol",
        "amine"
      ],
      [
        "Ġanti",
        "b"
      ],
      [
        "Ġp",
        "ar"
      ],
      [
        "amm",
        "a"
      ],
      [
        "he",
        "m"
      ],
      [
        "al",
        "l"
      ],
      [
        "al",
        "ly"
      ],
      [
        "ano",
        "ate"
      ],
      [
        "Ġconsist",
        "s"
      ],
      [
        "idin",
        "es"
      ],
      [
        "id",
        "es"
      ],
      [
        "benz",
        "enes"
      ],
      [
        "2",
        "0"
      ],
      [
        "Ġam",
        "monium"
      ],
      [
        "o",
        "isomer"
      ],
      [
        "Ġun",
        "it"
      ],
      [
        "Ġmo",
        "iety"
      ],
      [
        "2",
        "4"
      ],
      [
        "Ġ1",
        "1"
      ],
      [
        "o",
        "v"
      ],
      [
        "n",
        "aph"
      ],
      [
        "benz",
        "ene"
      ],
      [
        "Ġanti",
        "f"
      ],
      [
        "len",
        "e"
      ],
      [
        "Ġthi",
        "ol"
      ],
      [
        "Ġr",
        "e"
      ],
      [
        "t",
        "s"
      ],
      [
        "Ġglyc",
        "osid"
      ],
      [
        "at",
        "ri"
      ],
      [
        "Ġantib",
        "acterial"
      ],
      [
        "Ġd",
        "iterpenoid"
      ],
      [
        "galact",
        "osyl"
      ],
      [
        "Ġglyc",
        "osyl"
      ],
      [
        "flamm",
        "atory"
      ],
      [
        "in",
        "ositol"
      ],
      [
        "le",
        "t"
      ],
      [
        "Ġb",
        "ut"
      ],
      [
        "Ġs",
        "p"
      ],
      [
        "ar",
        "ing"
      ],
      [
        "in",
        "flammatory"
      ],
      [
        "ac",
        "etam"
      ],
      [
        "Ġn",
        "ucle"
      ],
      [
        "osphatid",
        "yl"
      ],
      [
        "un",
        "gal"
      ],
      [
        "Ġfl",
        "av"
      ],
      [
        "a",
        "ro"
      ],
      [
        "es",
        "qu"
      ],
      [
        "Ġd",
        "is"
      ],
      [
        "al",
        "m"
      ],
      [
        "Ġc",
        "yclo"
      ],
      [
        "op",
        "e"
      ],
      [
        "Ġglyc",
        "oside"
      ],
      [
        "is",
        "ia"
      ],
      [
        "odi",
        "um"
      ],
      [
        "Ġs",
        "esqu"
      ],
      [
        "a",
        "ins"
      ],
      [
        "n",
        "it"
      ],
      [
        "Ġantif",
        "ungal"
      ],
      [
        "tr",
        "ans"
      ],
      [
        "in",
        "ate"
      ],
      [
        "is",
        "o"
      ],
      [
        "Ġag",
        "ains"
      ],
      [
        "Ġagains",
        "t"
      ],
      [
        "o",
        "ic"
      ],
      [
        "Ġ",
        "U"
      ],
      [
        "Ġpro",
        "te"
      ],
      [
        "er",
        "ine"
      ],
      [
        "tero",
        "l"
      ],
      [
        "Ġg",
        "u"
      ],
      [
        "rom",
        "yces"
      ],
      [
        "Ġresult",
        "s"
      ],
      [
        "am",
        "ate"
      ],
      [
        "accha",
        "romyces"
      ],
      [
        "Ġcer",
        "ev"
      ],
      [
        "isia",
        "e"
      ],
      [
        "Ġcerev",
        "isiae"
      ],
      [
        "ĠS",
        "accharomyces"
      ],
      [
        "gluc",
        "osyl"
      ],
      [
        "Ġbe",
        "aring"
      ],
      [
        "iv",
        "e"
      ],
      [
        "ich",
        "l"
      ],
      [
        "Ġat",
        "om"
      ],
      [
        "Ġa",
        "p"
      ],
      [
        "hyd",
        "rate"
      ],
      [
        "carb",
        "oxy"
      ],
      [
        "hlor",
        "ine"
      ],
      [
        "u",
        "cu"
      ],
      [
        "ed",
        "i"
      ],
      [
        "glucopyran",
        "osyl"
      ],
      [
        "Ġglycosid",
        "ic"
      ],
      [
        "Ġc",
        "ycl"
      ],
      [
        "ri",
        "b"
      ],
      [
        "y",
        "e"
      ],
      [
        "Ġcy",
        "t"
      ],
      [
        "Ġbond",
        "s"
      ],
      [
        "res",
        "p"
      ],
      [
        "Ġcompr",
        "ising"
      ],
      [
        "eno",
        "ate"
      ],
      [
        "s",
        "p"
      ],
      [
        "et",
        "in"
      ],
      [
        "hi",
        "a"
      ],
      [
        "c",
        "ar"
      ],
      [
        "Ġcol",
        "i"
      ],
      [
        "ole",
        "oyl"
      ],
      [
        "m",
        "in"
      ],
      [
        "Ġm",
        "et"
      ],
      [
        "resp",
        "ond"
      ],
      [
        "yc",
        "in"
      ],
      [
        "Ġag",
        "onist"
      ],
      [
        "d",
        "ition"
      ],
      [
        "o",
        "rop"
      ],
      [
        "Ġan",
        "al"
      ],
      [
        "sulf",
        "o"
      ],
      [
        "le",
        "r"
      ],
      [
        "galact",
        "ose"
      ],
      [
        "Ġp",
        "eptide"
      ],
      [
        "gluc",
        "ose"
      ],
      [
        "Ġ",
        "ur"
      ],
      [
        "Ġcarb",
        "o"
      ],
      [
        "it",
        "is"
      ],
      [
        "ino",
        "genic"
      ],
      [
        "Ġ1",
        "2"
      ],
      [
        "Ġen",
        "d"
      ],
      [
        "tere",
        "oisomer"
      ],
      [
        "ox",
        "amide"
      ],
      [
        "sc",
        "her"
      ],
      [
        "benzo",
        "ic"
      ],
      [
        "ic",
        "hia"
      ],
      [
        "ĠE",
        "scher"
      ],
      [
        "ĠEscher",
        "ichia"
      ],
      [
        "Ġc",
        "ha"
      ],
      [
        "Ġ",
        "F"
      ],
      [
        "Ġred",
        "uc"
      ],
      [
        "ent",
        "a"
      ],
      [
        "c",
        "a"
      ],
      [
        "s",
        "e"
      ],
      [
        "Ġep",
        "it"
      ],
      [
        "f",
        "f"
      ],
      [
        "Ġ",
        "hexadec"
      ],
      [
        "hy",
        "t"
      ],
      [
        "Ġcor",
        "respond"
      ],
      [
        "Ġth",
        "ree"
      ],
      [
        "oprop",
        "yl"
      ],
      [
        "k",
        "et"
      ],
      [
        "s",
        "teroid"
      ],
      [
        "Ġorgano",
        "phosphate"
      ],
      [
        "Ġbr",
        "anched"
      ],
      [
        "c",
        "tive"
      ],
      [
        "p",
        "iper"
      ],
      [
        "Ġcorrespond",
        "ing"
      ],
      [
        "ox",
        "ic"
      ],
      [
        "Ġepit",
        "ope"
      ],
      [
        "im",
        "idine"
      ],
      [
        "con",
        "figuration"
      ],
      [
        "ip",
        "id"
      ],
      [
        "Ġc",
        "ell"
      ],
      [
        "or",
        "m"
      ],
      [
        "Ġd",
        "ye"
      ],
      [
        "acetam",
        "ido"
      ],
      [
        "Ġtetr",
        "asaccharide"
      ],
      [
        "Ġs",
        "h"
      ],
      [
        "Ġad",
        "dition"
      ],
      [
        "ot",
        "ide"
      ],
      [
        "Ġhav",
        "e"
      ],
      [
        "alm",
        "it"
      ],
      [
        "oc",
        "hol"
      ],
      [
        "ros",
        "ta"
      ],
      [
        "Ġ1",
        "0"
      ],
      [
        "c",
        "arboxylic"
      ],
      [
        "Ġm",
        "ac"
      ],
      [
        "in",
        "ase"
      ],
      [
        "Ġm",
        "ar"
      ],
      [
        "c",
        "in"
      ],
      [
        "y",
        "o"
      ],
      [
        "Ġ1",
        "5"
      ],
      [
        "Ġgluc",
        "osamine"
      ],
      [
        "Ġdi",
        "hydroxy"
      ],
      [
        "p",
        "hen"
      ],
      [
        "Ġg",
        "amma"
      ],
      [
        "alk",
        "yl"
      ],
      [
        "Ġfun",
        "g"
      ],
      [
        "Ġm",
        "ic"
      ],
      [
        "hy",
        "p"
      ],
      [
        "ur",
        "ine"
      ],
      [
        "ly",
        "s"
      ],
      [
        "Ġpoly",
        "unsaturated"
      ],
      [
        "et",
        "hanolamine"
      ],
      [
        "ot",
        "hi"
      ],
      [
        "Ġ2",
        "0"
      ],
      [
        "Ġanti",
        "biotic"
      ],
      [
        "on",
        "ucle"
      ],
      [
        "Ġcon",
        "t"
      ],
      [
        "b",
        "d"
      ],
      [
        "Ġn",
        "it"
      ],
      [
        "opyran",
        "osyl"
      ],
      [
        "Ġ",
        "qu"
      ],
      [
        "Ġlinkag",
        "e"
      ],
      [
        "p",
        "ero"
      ],
      [
        "iterp",
        "ene"
      ],
      [
        "ch",
        "rom"
      ],
      [
        "tr",
        "y"
      ],
      [
        "Ġmon",
        "osaccharide"
      ],
      [
        "er",
        "y"
      ],
      [
        "Ġg",
        "al"
      ],
      [
        "r",
        "a"
      ],
      [
        "Ġa",
        "z"
      ],
      [
        "ig",
        "n"
      ],
      [
        "ro",
        "b"
      ],
      [
        "Ġhydro",
        "c"
      ],
      [
        "ox",
        "id"
      ],
      [
        "glucopyran",
        "ose"
      ],
      [
        "Ġan",
        "omer"
      ],
      [
        "an",
        "ic"
      ],
      [
        "ox",
        "ide"
      ],
      [
        "Ġ",
        "["
      ],
      [
        "as",
        "s"
      ],
      [
        "Ġflu",
        "oro"
      ],
      [
        "Ġo",
        "me"
      ],
      [
        "Ġome",
        "ga"
      ],
      [
        "Ġ",
        "R"
      ],
      [
        "hem",
        "ical"
      ],
      [
        "2",
        "1"
      ],
      [
        "p",
        "rote"
      ],
      [
        "yr",
        "ic"
      ],
      [
        "Ġl",
        "ine"
      ],
      [
        "Ġph",
        "osphatidyl"
      ],
      [
        "Ġunit",
        "s"
      ],
      [
        "2",
        "2"
      ],
      [
        "Ġe",
        "le"
      ],
      [
        "ac",
        "on"
      ],
      [
        "r",
        "enyl"
      ],
      [
        "l",
        "ar"
      ],
      [
        "or",
        "d"
      ],
      [
        "at",
        "o"
      ],
      [
        "erg",
        "ic"
      ],
      [
        "glucos",
        "aminyl"
      ],
      [
        "gl",
        "and"
      ],
      [
        "rosta",
        "gland"
      ],
      [
        "k",
        "e"
      ],
      [
        "Ġox",
        "id"
      ],
      [
        "Ġaddition",
        "al"
      ],
      [
        "ha",
        "m"
      ],
      [
        "quin",
        "one"
      ],
      [
        "f",
        "uc"
      ],
      [
        "as",
        "par"
      ],
      [
        "om",
        "e"
      ],
      [
        "Ġoc",
        "tadec"
      ],
      [
        "ow",
        "n"
      ],
      [
        "2",
        "6"
      ],
      [
        "o",
        "phosphate"
      ],
      [
        "oc",
        "t"
      ],
      [
        "oc",
        "hlorine"
      ],
      [
        "Ġorgan",
        "ochlorine"
      ],
      [
        "ros",
        "ine"
      ],
      [
        "Ġs",
        "odium"
      ],
      [
        "he",
        "pt"
      ],
      [
        "Ġgal",
        "act"
      ],
      [
        "u",
        "e"
      ],
      [
        "r",
        "en"
      ],
      [
        "di",
        "ol"
      ],
      [
        "um",
        "ar"
      ],
      [
        "flavan",
        "one"
      ],
      [
        "Ġl",
        "oc"
      ],
      [
        "Ġl",
        "actone"
      ],
      [
        "l",
        "actone"
      ],
      [
        "Ġr",
        "em"
      ],
      [
        "Ġ",
        "im"
      ],
      [
        "Ġf",
        "ound"
      ],
      [
        "yl",
        "ic"
      ],
      [
        "ter",
        "p"
      ],
      [
        "Ġind",
        "ole"
      ],
      [
        "Ġb",
        "l"
      ],
      [
        "Ġdi",
        "anion"
      ],
      [
        "Ġcarb",
        "on"
      ],
      [
        "Ġmar",
        "ine"
      ],
      [
        "Ġis",
        "o"
      ],
      [
        "en",
        "ic"
      ],
      [
        "c",
        "is"
      ],
      [
        "Ġpolyp",
        "henol"
      ],
      [
        "Ġ",
        "imid"
      ],
      [
        "Ġcon",
        "figuration"
      ],
      [
        "Ġs",
        "ynthe"
      ],
      [
        "quinol",
        "ine"
      ],
      [
        "Ġform",
        "ed"
      ],
      [
        "Ġcarbo",
        "hydrate"
      ],
      [
        "E",
        "T"
      ],
      [
        "os",
        "ed"
      ],
      [
        "ap",
        "enta"
      ],
      [
        "docos",
        "a"
      ],
      [
        "ol",
        "og"
      ],
      [
        "Ġpent",
        "acyclic"
      ],
      [
        ")-",
        "["
      ],
      [
        "b",
        "is"
      ],
      [
        "gl",
        "ucu"
      ],
      [
        "i",
        "f"
      ],
      [
        "eth",
        "ion"
      ],
      [
        "o",
        "ate"
      ],
      [
        "Ġhydroc",
        "hloride"
      ],
      [
        "Ġc",
        "ent"
      ],
      [
        "i",
        "ron"
      ],
      [
        "Ġ",
        "ethyl"
      ],
      [
        "Ġag",
        "roc"
      ],
      [
        "a",
        "len"
      ],
      [
        "s",
        "ec"
      ],
      [
        "Glc",
        "p"
      ],
      [
        "Ġline",
        "ar"
      ],
      [
        "ham",
        "n"
      ],
      [
        "l",
        "a"
      ],
      [
        "Ġa",
        "den"
      ],
      [
        "ate",
        "tra"
      ],
      [
        "Ġdi",
        "p"
      ],
      [
        "ac",
        "etic"
      ],
      [
        "ach",
        "id"
      ],
      [
        "n",
        "itro"
      ],
      [
        "u",
        "k"
      ],
      [
        "tr",
        "icyclic"
      ],
      [
        "Ġcomp",
        "osed"
      ],
      [
        "Ġreduc",
        "ing"
      ],
      [
        "uc",
        "ine"
      ],
      [
        "Ġgl",
        "ut"
      ],
      [
        "Ġanomer",
        "ic"
      ],
      [
        "o",
        "tri"
      ],
      [
        "rob",
        "ial"
      ],
      [
        "Ġrem",
        "ov"
      ],
      [
        "Ġagroc",
        "hemical"
      ],
      [
        "ol",
        "ic"
      ],
      [
        "Ġd",
        "im"
      ],
      [
        "b",
        "r"
      ],
      [
        "Ġk",
        "inase"
      ],
      [
        "ug",
        "ar"
      ],
      [
        "ĠC",
        "a"
      ],
      [
        "y",
        "an"
      ],
      [
        "Ġp",
        "o"
      ],
      [
        "os",
        "is"
      ],
      [
        "ĠA",
        "sp"
      ],
      [
        "oxid",
        "ant"
      ],
      [
        "Ġ",
        "unsaturated"
      ],
      [
        "Ġdi",
        "hydro"
      ],
      [
        "prop",
        "yl"
      ],
      [
        "Ġremov",
        "al"
      ],
      [
        "pero",
        "xy"
      ],
      [
        "Ġanti",
        "oxidant"
      ],
      [
        "ĠA",
        "n"
      ],
      [
        "ot",
        "oxic"
      ],
      [
        "ol",
        "ide"
      ],
      [
        ")",
        "]-"
      ],
      [
        "Ġac",
        "etam"
      ],
      [
        "a",
        "ti"
      ],
      [
        "b",
        "rom"
      ],
      [
        "D",
        "elta"
      ],
      [
        "rostagland",
        "in"
      ],
      [
        "he",
        "p"
      ],
      [
        "di",
        "acyl"
      ],
      [
        "flu",
        "oro"
      ],
      [
        "Ġlinkag",
        "es"
      ],
      [
        "ichl",
        "oro"
      ],
      [
        "Ġf",
        "r"
      ],
      [
        "pha",
        "n"
      ],
      [
        "s",
        "o"
      ],
      [
        "en",
        "or"
      ],
      [
        "os",
        "t"
      ],
      [
        "her",
        "b"
      ],
      [
        "in",
        "ium"
      ],
      [
        "yste",
        "ine"
      ],
      [
        "ill",
        "us"
      ],
      [
        "ic",
        "robial"
      ],
      [
        "phospho",
        "ethanolamine"
      ],
      [
        "s",
        "t"
      ],
      [
        "g",
        "es"
      ],
      [
        "ox",
        "in"
      ],
      [
        "methyl",
        "hexadec"
      ],
      [
        "g",
        "ans"
      ],
      [
        "ha",
        "bd"
      ],
      [
        "Ġal",
        "dehyde"
      ],
      [
        "Ġele",
        "gans"
      ],
      [
        "c",
        "hloro"
      ],
      [
        "p",
        "or"
      ],
      [
        "enor",
        "habd"
      ],
      [
        "Ġit",
        "s"
      ],
      [
        "Ġantim",
        "icrobial"
      ],
      [
        "prote",
        "inogenic"
      ],
      [
        "ĠCa",
        "enorhabd"
      ],
      [
        "ĠCaenorhabd",
        "itis"
      ],
      [
        "Ġs",
        "tr"
      ],
      [
        "Ġloc",
        "ated"
      ],
      [
        "on",
        "ent"
      ],
      [
        "an",
        "il"
      ],
      [
        "Ġcomp",
        "onent"
      ],
      [
        "Ġfun",
        "gal"
      ],
      [
        "tetra",
        "hydro"
      ],
      [
        "Ġfunction",
        "s"
      ],
      [
        "is",
        "ed"
      ],
      [
        "Ġdip",
        "eptide"
      ],
      [
        "er",
        "c"
      ],
      [
        "p",
        "yran"
      ],
      [
        "rol",
        "ine"
      ],
      [
        "gen",
        "ase"
      ],
      [
        "v",
        "in"
      ],
      [
        "an",
        "es"
      ],
      [
        "Ġacid",
        "s"
      ],
      [
        "in",
        "ing"
      ],
      [
        "und",
        "ec"
      ],
      [
        "u",
        "ro"
      ],
      [
        "Ġ1",
        "4"
      ],
      [
        "Ġcon",
        "ver"
      ],
      [
        "flu",
        "or"
      ],
      [
        "Ġprote",
        "in"
      ],
      [
        "orop",
        "henyl"
      ],
      [
        "herb",
        "icide"
      ],
      [
        "terp",
        "enoid"
      ],
      [
        "r",
        "hamn"
      ],
      [
        "en",
        "antiomer"
      ],
      [
        "Ġc",
        "hloro"
      ],
      [
        "Ġen",
        "one"
      ],
      [
        "ros",
        "ide"
      ],
      [
        "Ġoc",
        "t"
      ],
      [
        "Ġgu",
        "an"
      ],
      [
        "Gal",
        "p"
      ],
      [
        "Ġsesqu",
        "iterpenoid"
      ],
      [
        "ti",
        "es"
      ],
      [
        "as",
        "t"
      ],
      [
        "but",
        "yl"
      ],
      [
        "erg",
        "illus"
      ],
      [
        "ĠAsp",
        "ergillus"
      ],
      [
        "Ġ1",
        "3"
      ],
      [
        "th",
        "o"
      ],
      [
        "ochol",
        "ine"
      ],
      [
        "Ġm",
        "ed"
      ],
      [
        "Ġf",
        "our"
      ],
      [
        "Ġin",
        "sec"
      ],
      [
        "oxyl",
        "ate"
      ],
      [
        "o",
        "od"
      ],
      [
        "m",
        "yo"
      ],
      [
        "o",
        "rom"
      ],
      [
        "chol",
        "ine"
      ],
      [
        "Ġp",
        "iper"
      ],
      [
        "th",
        "re"
      ],
      [
        "Ġch",
        "rom"
      ],
      [
        "er",
        "m"
      ],
      [
        "Ġhe",
        "p"
      ],
      [
        "ten",
        "s"
      ],
      [
        "M",
        "P"
      ],
      [
        "os",
        "ulf"
      ],
      [
        "as",
        "phing"
      ],
      [
        "r",
        "ic"
      ],
      [
        "s",
        "erine"
      ],
      [
        "on",
        "oid"
      ],
      [
        "id",
        "ene"
      ],
      [
        "carb",
        "onyl"
      ],
      [
        "ome",
        "ga"
      ],
      [
        "on",
        "in"
      ],
      [
        "Ġs",
        "te"
      ],
      [
        "Ġs",
        "ap"
      ],
      [
        "Ġr",
        "ib"
      ],
      [
        "tic",
        "ide"
      ],
      [
        "almit",
        "oyl"
      ],
      [
        "enic",
        "ill"
      ],
      [
        "m",
        "et"
      ],
      [
        "Ġc",
        "is"
      ],
      [
        "Ġmic",
        "ros"
      ],
      [
        "w",
        "e"
      ],
      [
        "Ġcarb",
        "oxamide"
      ],
      [
        "ros",
        "t"
      ],
      [
        "phosph",
        "ocholine"
      ],
      [
        "anc",
        "er"
      ],
      [
        "Ġtrans",
        "fer"
      ],
      [
        "ca",
        "roside"
      ],
      [
        "op",
        "yr"
      ],
      [
        "Ġsh",
        "own"
      ],
      [
        "olog",
        "ical"
      ],
      [
        "c",
        "ycl"
      ],
      [
        "dec",
        "anoyl"
      ],
      [
        "oles",
        "t"
      ],
      [
        "Ġpyr",
        "rol"
      ],
      [
        "l",
        "ink"
      ],
      [
        "ar",
        "ab"
      ],
      [
        "peci",
        "es"
      ],
      [
        "i",
        "z"
      ],
      [
        "tetr",
        "acyclic"
      ],
      [
        "Ġhetero",
        "tetracyclic"
      ],
      [
        "-",
        "{"
      ],
      [
        "Ġb",
        "rom"
      ],
      [
        "mon",
        "ophosphate"
      ],
      [
        "Ġprod",
        "uc"
      ],
      [
        "Ġcyt",
        "otoxic"
      ],
      [
        "hy",
        "lene"
      ],
      [
        "Ġconver",
        "ted"
      ],
      [
        "Ġh",
        "ist"
      ],
      [
        "h",
        "om"
      ],
      [
        "u",
        "v"
      ],
      [
        "Ġ1",
        "6"
      ],
      [
        "pent",
        "a"
      ],
      [
        "Ġmicros",
        "pecies"
      ],
      [
        "Ġf",
        "ur"
      ],
      [
        "ac",
        "et"
      ],
      [
        "ig",
        "h"
      ],
      [
        "mann",
        "osyl"
      ],
      [
        "Ġn",
        "aph"
      ],
      [
        "ethion",
        "ine"
      ],
      [
        "d",
        "ide"
      ],
      [
        "t",
        "o"
      ],
      [
        "Ġter",
        "min"
      ],
      [
        "pt",
        "o"
      ],
      [
        "chrom",
        "e"
      ],
      [
        "mann",
        "ose"
      ],
      [
        "Ġcha",
        "in"
      ],
      [
        "2",
        "3"
      ],
      [
        "Ġac",
        "etyl"
      ],
      [
        "ty",
        "rosine"
      ],
      [
        "Ġfluoro",
        "chrome"
      ],
      [
        "position",
        "s"
      ],
      [
        "ind",
        "ole"
      ],
      [
        "Ġ",
        "herbicide"
      ],
      [
        "ep",
        "oxy"
      ],
      [
        "Ġhetero",
        "tricyclic"
      ],
      [
        "Ġ",
        "icos"
      ],
      [
        "Ġant",
        "h"
      ],
      [
        "ri",
        "le"
      ],
      [
        "l",
        "ong"
      ],
      [
        "on",
        "ine"
      ],
      [
        "Ġe",
        "qu"
      ],
      [
        "Ġalk",
        "yl"
      ],
      [
        "naph",
        "tha"
      ],
      [
        "Ġac",
        "tive"
      ],
      [
        "oc",
        "h"
      ],
      [
        "op",
        "hen"
      ],
      [
        "onucle",
        "oside"
      ],
      [
        "l",
        "in"
      ],
      [
        "Ġd",
        "ocos"
      ],
      [
        "op",
        "ent"
      ],
      [
        "ir",
        "al"
      ],
      [
        "y",
        "p"
      ],
      [
        "I",
        "V"
      ],
      [
        "ar",
        "g"
      ],
      [
        "or",
        "ph"
      ],
      [
        "ET",
        "E"
      ],
      [
        "Ġacetam",
        "ides"
      ],
      [
        "di",
        "en"
      ],
      [
        "i",
        "an"
      ],
      [
        "yc",
        "le"
      ],
      [
        "Ġal",
        "ler"
      ],
      [
        "Glc",
        "NAc"
      ],
      [
        "c",
        "yclo"
      ],
      [
        "ol",
        "ar"
      ],
      [
        "res",
        "s"
      ],
      [
        "Ġsap",
        "onin"
      ],
      [
        "pto",
        "phan"
      ],
      [
        "al",
        "dehyde"
      ],
      [
        "Ġind",
        "uc"
      ],
      [
        "Ġpo",
        "ten"
      ],
      [
        "Ġ",
        "hyp"
      ],
      [
        "ol",
        "s"
      ],
      [
        "Ġs",
        "tra"
      ],
      [
        "o",
        "ph"
      ],
      [
        "on",
        "amide"
      ],
      [
        "galact",
        "opyranose"
      ],
      [
        "igh",
        "t"
      ],
      [
        "t",
        "her"
      ],
      [
        "er",
        "amide"
      ],
      [
        "hydroxy",
        "flavone"
      ],
      [
        "docosa",
        "hexa"
      ],
      [
        "Ġb",
        "et"
      ],
      [
        "Ġs",
        "phing"
      ],
      [
        "ac",
        "id"
      ],
      [
        "or",
        "g"
      ],
      [
        "Ġs",
        "tereoisomer"
      ],
      [
        "Ġmonoc",
        "hloro"
      ],
      [
        "Ġorgan",
        "osulf"
      ],
      [
        "aro",
        "yl"
      ],
      [
        "Ġd",
        "ec"
      ],
      [
        "Ġs",
        "aturated"
      ],
      [
        "de",
        "hydro"
      ],
      [
        "Ġorgano",
        "fluor"
      ],
      [
        "orom",
        "ethyl"
      ],
      [
        "Ġorganofluor",
        "ine"
      ],
      [
        "u",
        "ron"
      ],
      [
        "Ġn",
        "eu"
      ],
      [
        "Ġanal",
        "og"
      ],
      [
        "s",
        "phing"
      ],
      [
        "oc",
        "yan"
      ],
      [
        "Ġsulf",
        "o"
      ],
      [
        "ar",
        "yl"
      ],
      [
        "Ġc",
        "hloride"
      ],
      [
        "lys",
        "ine"
      ],
      [
        "Ġmonochloro",
        "benzenes"
      ],
      [
        "Ġn",
        "e"
      ],
      [
        "ulf",
        "onic"
      ],
      [
        "in",
        "yl"
      ],
      [
        "Ġp",
        "hen"
      ],
      [
        "ol",
        "yc"
      ],
      [
        "glyc",
        "ine"
      ],
      [
        "we",
        "en"
      ],
      [
        "am",
        "yl"
      ],
      [
        "ind",
        "ol"
      ],
      [
        "methylhexadec",
        "asphing"
      ],
      [
        "+",
        ")-"
      ],
      [
        "al",
        "ar"
      ],
      [
        "ar",
        "ic"
      ],
      [
        "benz",
        "yl"
      ],
      [
        "Ġfung",
        "icide"
      ],
      [
        "Ġbet",
        "ween"
      ],
      [
        "es",
        "t"
      ],
      [
        "am",
        "oyl"
      ],
      [
        "at",
        "hi"
      ],
      [
        "hydroxy",
        "phenyl"
      ],
      [
        "act",
        "or"
      ],
      [
        "re",
        "g"
      ],
      [
        "Ġa",
        "b"
      ],
      [
        "Ġhydro",
        "xyl"
      ],
      [
        "Ġam",
        "ine"
      ],
      [
        "act",
        "am"
      ],
      [
        "alen",
        "t"
      ],
      [
        "dec",
        "anoic"
      ],
      [
        "r",
        "al"
      ],
      [
        "ip",
        "eptide"
      ],
      [
        "i",
        "x"
      ],
      [
        "glucu",
        "ron"
      ],
      [
        "c",
        "yclic"
      ],
      [
        "i",
        "ro"
      ],
      [
        "ĠU",
        "DP"
      ],
      [
        "Ġsulf",
        "ur"
      ],
      [
        "flu",
        "oromethyl"
      ],
      [
        "Ġflu",
        "or"
      ],
      [
        "I",
        "I"
      ],
      [
        "g",
        "ed"
      ],
      [
        "Ġan",
        "tic"
      ],
      [
        "h",
        "ist"
      ],
      [
        "u",
        "d"
      ],
      [
        "Ġglyc",
        "ine"
      ],
      [
        "pyr",
        "idine"
      ],
      [
        "Ġap",
        "op"
      ],
      [
        "Ġin",
        "ter"
      ],
      [
        "om",
        "ycin"
      ],
      [
        "di",
        "one"
      ],
      [
        "f",
        "orm"
      ],
      [
        "Ġc",
        "ancer"
      ],
      [
        "cu",
        "lar"
      ],
      [
        "Ġal",
        "so"
      ],
      [
        "idu",
        "ronic"
      ],
      [
        "Ġtetr",
        "acyclic"
      ],
      [
        "en",
        "d"
      ],
      [
        "benz",
        "oyl"
      ],
      [
        "ero",
        "l"
      ],
      [
        "uk",
        "otri"
      ],
      [
        "Ġinsec",
        "ticide"
      ],
      [
        "Ġaller",
        "gen"
      ],
      [
        "t",
        "osis"
      ],
      [
        "Ġbenz",
        "oate"
      ],
      [
        "'",
        "."
      ],
      [
        "r",
        "in"
      ],
      [
        "Ġg",
        "en"
      ],
      [
        "Ġpent",
        "asaccharide"
      ],
      [
        "o",
        "furan"
      ],
      [
        "an",
        "g"
      ],
      [
        "Ġas",
        "caroside"
      ],
      [
        "Ġmon",
        "om"
      ],
      [
        "Ġapop",
        "tosis"
      ],
      [
        "Ġs",
        "ide"
      ],
      [
        "al",
        "ine"
      ],
      [
        "le",
        "ctive"
      ],
      [
        "Ġc",
        "in"
      ],
      [
        "ate",
        "r"
      ],
      [
        "ment",
        "al"
      ],
      [
        "Ġmac",
        "roc"
      ],
      [
        "ukotri",
        "ene"
      ],
      [
        "ate",
        "chol"
      ],
      [
        "ign",
        "an"
      ],
      [
        "oxy",
        "genase"
      ],
      [
        "glyc",
        "osyl"
      ],
      [
        "acon",
        "ta"
      ],
      [
        "org",
        "anic"
      ],
      [
        "Ġp",
        "rostaglandin"
      ],
      [
        "Ġin",
        "organic"
      ],
      [
        "Ġinhibitor",
        "y"
      ],
      [
        "Ġo",
        "sc"
      ],
      [
        "Ġm",
        "ann"
      ],
      [
        "glyc",
        "er"
      ],
      [
        "Ġter",
        "p"
      ],
      [
        "Ġhetero",
        "pent"
      ],
      [
        "Ġosc",
        "r"
      ],
      [
        "Ġheteropent",
        "acyclic"
      ],
      [
        "Ġh",
        "om"
      ],
      [
        "Ġanalog",
        "ue"
      ],
      [
        "az",
        "in"
      ],
      [
        "icos",
        "atri"
      ],
      [
        "Ġole",
        "f"
      ],
      [
        "ol",
        "in"
      ],
      [
        "Ġstr",
        "uct"
      ],
      [
        "2",
        "5"
      ],
      [
        "le",
        "x"
      ],
      [
        "Ġcont",
        "amin"
      ],
      [
        "y",
        "m"
      ],
      [
        "Ġl",
        "ipid"
      ],
      [
        "Ġe",
        "ach"
      ],
      [
        "Ġen",
        "v"
      ],
      [
        "Ġmed",
        "ium"
      ],
      [
        "ell",
        "in"
      ],
      [
        "y",
        "let"
      ],
      [
        "et",
        "her"
      ],
      [
        "Ġs",
        "uc"
      ],
      [
        "Ġmono",
        "terpenoid"
      ],
      [
        "Ġenv",
        "iron"
      ],
      [
        "m",
        "a"
      ],
      [
        "Ġm",
        "us"
      ],
      [
        "Ġp",
        "hyt"
      ],
      [
        "al",
        "ic"
      ],
      [
        "Ġcontamin",
        "ant"
      ],
      [
        "Ġenviron",
        "mental"
      ],
      [
        "f",
        "ec"
      ],
      [
        "Ġsulf",
        "onamide"
      ],
      [
        "Ġprod",
        "rug"
      ],
      [
        "az",
        "ep"
      ],
      [
        "Ġep",
        "oxide"
      ],
      [
        "Ġbr",
        "id"
      ],
      [
        "Ġmonom",
        "ethoxy"
      ],
      [
        "ro",
        "le"
      ],
      [
        "Ġsesqu",
        "iterpene"
      ],
      [
        "s",
        "u"
      ],
      [
        "ester",
        "ase"
      ],
      [
        "Ġphosphatidyl",
        "choline"
      ],
      [
        "Ġ",
        "te"
      ],
      [
        "Ġs",
        "c"
      ],
      [
        "f",
        "atty"
      ],
      [
        "Ġo",
        "p"
      ],
      [
        "Ġo",
        "xy"
      ],
      [
        "at",
        "a"
      ],
      [
        "im",
        "ethyl"
      ],
      [
        "phosph",
        "on"
      ],
      [
        "ib",
        "ber"
      ],
      [
        "Ġp",
        "urine"
      ],
      [
        "Ġs",
        "yn"
      ],
      [
        "Ġanti",
        "p"
      ],
      [
        "phenyl",
        "alanine"
      ],
      [
        "Ġbenz",
        "yl"
      ],
      [
        "p",
        "roline"
      ],
      [
        "but",
        "yric"
      ],
      [
        "aro",
        "ten"
      ],
      [
        "Ġaden",
        "osine"
      ],
      [
        "Ġar",
        "yl"
      ],
      [
        "try",
        "ptophan"
      ],
      [
        "tr",
        "ept"
      ],
      [
        "Ġs",
        "ing"
      ],
      [
        "al",
        "c"
      ],
      [
        "am",
        "ides"
      ],
      [
        "Ġole",
        "ic"
      ],
      [
        "n",
        "on"
      ],
      [
        "al",
        "anyl"
      ],
      [
        "ul",
        "a"
      ],
      [
        "Ġv",
        "ery"
      ],
      [
        "Ġmono",
        "unsaturated"
      ],
      [
        "apenta",
        "enoic"
      ],
      [
        "Ġsulf",
        "ide"
      ],
      [
        "Ġmono",
        "hydroxy"
      ],
      [
        "nit",
        "ine"
      ],
      [
        "aspar",
        "tic"
      ],
      [
        "c",
        "ysteine"
      ],
      [
        "ac",
        "tion"
      ],
      [
        "Ġanal",
        "ges"
      ],
      [
        "Ġanalges",
        "ic"
      ],
      [
        "s",
        "te"
      ],
      [
        "Ġproduc",
        "ed"
      ],
      [
        "le",
        "ucine"
      ],
      [
        "Ġsing",
        "le"
      ],
      [
        "l",
        "ator"
      ],
      [
        "Ġd",
        "elta"
      ],
      [
        "Ġro",
        "ot"
      ],
      [
        "Ġcin",
        "n"
      ],
      [
        "ibber",
        "ellin"
      ],
      [
        "a",
        "x"
      ],
      [
        "in",
        "ine"
      ],
      [
        ")-",
        "("
      ],
      [
        "Ġolef",
        "inic"
      ],
      [
        "Ġstruct",
        "ure"
      ],
      [
        "Ġo",
        "ther"
      ],
      [
        "T",
        "P"
      ],
      [
        "ip",
        "henyl"
      ],
      [
        "Ġphosph",
        "o"
      ],
      [
        "Ġpoten",
        "t"
      ],
      [
        "Ġse",
        "lective"
      ],
      [
        "carb",
        "on"
      ],
      [
        "Ġtermin",
        "al"
      ],
      [
        "Ġinduc",
        "er"
      ],
      [
        "Ġf",
        "er"
      ],
      [
        "alar",
        "ial"
      ],
      [
        "s",
        "ed"
      ],
      [
        "en",
        "ine"
      ],
      [
        "Ġnucle",
        "otide"
      ],
      [
        "2",
        "8"
      ],
      [
        "ol",
        "ate"
      ],
      [
        "ic",
        "arb"
      ],
      [
        "er",
        "v"
      ],
      [
        "Ġ1",
        "9"
      ],
      [
        "Ġx",
        "anth"
      ],
      [
        "glut",
        "amic"
      ],
      [
        "in",
        "ary"
      ],
      [
        "Ġderiv",
        "ed"
      ],
      [
        "Ġl",
        "in"
      ],
      [
        "Ġcarb",
        "amate"
      ],
      [
        "Ġdi",
        "ol"
      ],
      [
        "Glcp",
        "NAc"
      ],
      [
        "ar",
        "k"
      ],
      [
        "Ġw",
        "ell"
      ],
      [
        "az",
        "ines"
      ],
      [
        "Ġde",
        "oxy"
      ],
      [
        "Ġantim",
        "alarial"
      ],
      [
        "in",
        "esterase"
      ],
      [
        "Ġan",
        "il"
      ],
      [
        "ag",
        "e"
      ],
      [
        "Ġpr",
        "enyl"
      ],
      [
        "Ġcent",
        "re"
      ],
      [
        "su",
        "bstitu"
      ],
      [
        "Ġin",
        "to"
      ],
      [
        "Ġv",
        "as"
      ],
      [
        "ap",
        "renyl"
      ],
      [
        "acos",
        "anoyl"
      ],
      [
        "Ġhexadec",
        "anoic"
      ],
      [
        "piper",
        "azine"
      ],
      [
        "Ġsynthe",
        "sis"
      ],
      [
        "-",
        ")-"
      ],
      [
        "Ġs",
        "t"
      ],
      [
        "Ġl",
        "ys"
      ],
      [
        "Ġn",
        "em"
      ],
      [
        "ti",
        "l"
      ],
      [
        "Ġ(",
        "+)-"
      ],
      [
        "Ġ1",
        "8"
      ],
      [
        "Ġpyr",
        "idine"
      ],
      [
        "m",
        "edi"
      ],
      [
        "Ġw",
        "he"
      ],
      [
        "Ġl",
        "ip"
      ],
      [
        "Ġqu",
        "erc"
      ],
      [
        ")",
        "("
      ],
      [
        "tri",
        "fluoromethyl"
      ],
      [
        "pyr",
        "rol"
      ],
      [
        "Ġcyclo",
        "hex"
      ],
      [
        ")",
        "]"
      ],
      [
        "s",
        "terol"
      ],
      [
        "quin",
        "ones"
      ],
      [
        "Ġcell",
        "s"
      ],
      [
        "Ġ",
        "quinol"
      ],
      [
        "Ġc",
        "atechol"
      ],
      [
        "Ġpent",
        "a"
      ],
      [
        "Ġcont",
        "rol"
      ],
      [
        "e",
        "a"
      ],
      [
        "Ġd",
        "T"
      ],
      [
        "rote",
        "ctive"
      ],
      [
        "di",
        "ene"
      ],
      [
        "a",
        "i"
      ],
      [
        "Ġ",
        "quin"
      ],
      [
        "ti",
        "ally"
      ],
      [
        "ole",
        "ic"
      ],
      [
        "th",
        "yl"
      ],
      [
        "medi",
        "ate"
      ],
      [
        "it",
        "r"
      ],
      [
        "Ġr",
        "el"
      ],
      [
        "em",
        "ic"
      ],
      [
        "p",
        "ress"
      ],
      [
        "c",
        "hl"
      ],
      [
        "f",
        "en"
      ],
      [
        "ac",
        "c"
      ],
      [
        "Ġar",
        "achid"
      ],
      [
        "och",
        "rom"
      ],
      [
        "g",
        "er"
      ],
      [
        "m",
        "er"
      ],
      [
        "on",
        "oyl"
      ],
      [
        "er",
        "tens"
      ],
      [
        "ant",
        "hen"
      ],
      [
        "Ġan",
        "tiv"
      ],
      [
        "os",
        "por"
      ],
      [
        "Ġn",
        "atur"
      ],
      [
        "ĠS",
        "trept"
      ],
      [
        "chol",
        "inesterase"
      ],
      [
        "methoxy",
        "phenyl"
      ],
      [
        "Ġantiv",
        "iral"
      ],
      [
        "os",
        "aminyl"
      ],
      [
        "Ġ(",
        "-)-"
      ],
      [
        "tha",
        "se"
      ],
      [
        "yste",
        "m"
      ],
      [
        "dide",
        "oxy"
      ],
      [
        "l",
        "c"
      ],
      [
        "ĠM",
        "a"
      ],
      [
        "Ġphosph",
        "or"
      ],
      [
        "3",
        "0"
      ],
      [
        "a",
        "S"
      ],
      [
        "c",
        "r"
      ],
      [
        "m",
        "ember"
      ],
      [
        "Ġm",
        "yc"
      ],
      [
        "tr",
        "imethyl"
      ],
      [
        "Ġhyd",
        "rate"
      ],
      [
        "Ġcer",
        "amide"
      ],
      [
        "en",
        "s"
      ],
      [
        "en",
        "sis"
      ],
      [
        "ol",
        "v"
      ],
      [
        "Ġin",
        "c"
      ],
      [
        "om",
        "a"
      ],
      [
        "methyl",
        "but"
      ],
      [
        "glut",
        "amyl"
      ],
      [
        "Ġglycosyl",
        "oxy"
      ],
      [
        "ke",
        "let"
      ],
      [
        "Ġp",
        "er"
      ],
      [
        "ed",
        "io"
      ],
      [
        "galact",
        "osamine"
      ],
      [
        "Ġpyr",
        "imidine"
      ],
      [
        "len",
        "es"
      ],
      [
        "Ġquerc",
        "etin"
      ],
      [
        "tit",
        "y"
      ],
      [
        "Ġen",
        "ol"
      ],
      [
        "Ġur",
        "inary"
      ],
      [
        "arab",
        "ino"
      ],
      [
        "Ġinter",
        "mediate"
      ],
      [
        "member",
        "ed"
      ],
      [
        "Ġbenz",
        "oic"
      ],
      [
        "Ġse",
        "roton"
      ],
      [
        "sulf",
        "anyl"
      ],
      [
        "ĠU",
        "sed"
      ],
      [
        "Ġterp",
        "ene"
      ],
      [
        "substitu",
        "ted"
      ],
      [
        "Ġs",
        "ystem"
      ],
      [
        "Ġen",
        "tity"
      ],
      [
        "Ġre",
        "action"
      ],
      [
        "car",
        "nitine"
      ],
      [
        "ren",
        "ergic"
      ],
      [
        "Ġfr",
        "ag"
      ],
      [
        "Ġsyn",
        "thase"
      ],
      [
        "Ġroot",
        "s"
      ],
      [
        "c",
        "y"
      ],
      [
        "pyr",
        "imidine"
      ],
      [
        "i",
        "ol"
      ],
      [
        "om",
        "yces"
      ],
      [
        "hexadec",
        "anoyl"
      ],
      [
        "Ġstra",
        "ight"
      ],
      [
        "Ġbrid",
        "ged"
      ],
      [
        "fur",
        "ans"
      ],
      [
        "Ġwhe",
        "re"
      ],
      [
        "a",
        "den"
      ],
      [
        "s",
        "ugar"
      ],
      [
        "in",
        "ation"
      ],
      [
        "Ġc",
        "e"
      ],
      [
        "Ġtetr",
        "ac"
      ],
      [
        "Ġproton",
        "s"
      ],
      [
        "ff",
        "ec"
      ],
      [
        "thre",
        "onine"
      ],
      [
        "k",
        "in"
      ],
      [
        "icos",
        "atetra"
      ],
      [
        "ĠM",
        "yc"
      ],
      [
        "ure",
        "a"
      ],
      [
        "Ġnit",
        "rile"
      ],
      [
        "Ġd",
        "iterpene"
      ],
      [
        "tha",
        "l"
      ],
      [
        "Ġs",
        "kelet"
      ],
      [
        "hydro",
        "peroxy"
      ],
      [
        "galact",
        "opyranosyl"
      ],
      [
        "ĠP",
        "enicill"
      ],
      [
        "Ġste",
        "m"
      ],
      [
        "ĠPenicill",
        "ium"
      ],
      [
        "ic",
        "ot"
      ],
      [
        "Ġox",
        "ide"
      ],
      [
        "idin",
        "ium"
      ],
      [
        "Ġole",
        "oyl"
      ],
      [
        "ar",
        "achid"
      ],
      [
        "Ġas",
        "s"
      ],
      [
        "Ġle",
        "ukotriene"
      ],
      [
        "ĠdT",
        "DP"
      ],
      [
        "p",
        "almitoyl"
      ],
      [
        "im",
        "al"
      ],
      [
        "tero",
        "ne"
      ],
      [
        "imid",
        "azole"
      ],
      [
        "glut",
        "amine"
      ],
      [
        "a",
        "R"
      ],
      [
        "c",
        "eramide"
      ],
      [
        "et",
        "ino"
      ],
      [
        "Ġr",
        "ad"
      ],
      [
        "Ġl",
        "ignan"
      ],
      [
        "anth",
        "r"
      ],
      [
        "Ġrad",
        "ical"
      ],
      [
        "Ġc",
        "aroten"
      ],
      [
        "Ġd",
        "ichloro"
      ],
      [
        "ion",
        "ic"
      ],
      [
        "Ġhydro",
        "peroxy"
      ],
      [
        "co",
        "umar"
      ],
      [
        "Ġtetr",
        "ap"
      ],
      [
        "benzo",
        "ate"
      ],
      [
        "Ġdis",
        "e"
      ],
      [
        "g",
        "u"
      ],
      [
        "Ġf",
        "ree"
      ],
      [
        "ac",
        "r"
      ],
      [
        "ent",
        "al"
      ],
      [
        "Ġhe",
        "pt"
      ],
      [
        "t",
        "in"
      ],
      [
        "prop",
        "an"
      ],
      [
        "Ġatom",
        "s"
      ],
      [
        "olyc",
        "yclic"
      ],
      [
        "athi",
        "one"
      ],
      [
        "h",
        "o"
      ],
      [
        "p",
        "ro"
      ],
      [
        "is",
        "m"
      ],
      [
        "it",
        "hi"
      ],
      [
        "anc",
        "e"
      ],
      [
        "ne",
        "ur"
      ],
      [
        "ĠStrept",
        "omyces"
      ],
      [
        "Ġs",
        "ugar"
      ],
      [
        "ĠC",
        "ha"
      ],
      [
        "ch",
        "olest"
      ],
      [
        "i",
        "fer"
      ],
      [
        "et",
        "om"
      ],
      [
        "at",
        "in"
      ],
      [
        "Ġket",
        "o"
      ],
      [
        "at",
        "ing"
      ],
      [
        "tere",
        "oc"
      ],
      [
        "nit",
        "rop"
      ],
      [
        "Ġhist",
        "ological"
      ],
      [
        "hy",
        "m"
      ],
      [
        "Ġv",
        "ar"
      ],
      [
        "io",
        "d"
      ],
      [
        "Ġpr",
        "es"
      ],
      [
        "ery",
        "th"
      ],
      [
        "br",
        "anched"
      ],
      [
        "g",
        "amma"
      ],
      [
        "i",
        "tic"
      ],
      [
        "n",
        "s"
      ],
      [
        "Ġc",
        "han"
      ],
      [
        "Ġs",
        "er"
      ],
      [
        "ec",
        "ted"
      ],
      [
        "iv",
        "alent"
      ],
      [
        "Ġw",
        "hi"
      ],
      [
        "Ġform",
        "ula"
      ],
      [
        "carb",
        "oxamide"
      ],
      [
        "Ġ",
        "erg"
      ],
      [
        "os",
        "ynthe"
      ],
      [
        "mann",
        "o"
      ],
      [
        "Ġpar",
        "ent"
      ],
      [
        "cyclo",
        "hex"
      ],
      [
        "u",
        "te"
      ],
      [
        "os",
        "s"
      ],
      [
        "gen",
        "in"
      ],
      [
        "tri",
        "hydroxy"
      ],
      [
        "p",
        "e"
      ],
      [
        "Ġs",
        "o"
      ],
      [
        "ar",
        "d"
      ],
      [
        "Ġcon",
        "n"
      ],
      [
        "Ġpl",
        "ate"
      ],
      [
        "ros",
        "s"
      ],
      [
        "Ġsynthe",
        "tic"
      ],
      [
        "ĠCha",
        "etom"
      ],
      [
        "ĠChaetom",
        "ium"
      ],
      [
        "ac",
        "il"
      ],
      [
        "Ġgro",
        "w"
      ],
      [
        "ter",
        "in"
      ],
      [
        "av",
        "es"
      ],
      [
        "Ġe",
        "ffec"
      ],
      [
        "Ġnem",
        "ato"
      ],
      [
        "Ġskelet",
        "on"
      ],
      [
        "m",
        "un"
      ],
      [
        "m",
        "ethionine"
      ],
      [
        "oc",
        "k"
      ],
      [
        "Ġam",
        "o"
      ],
      [
        "Ġep",
        "oxy"
      ],
      [
        "Ġbi",
        "osynthe"
      ],
      [
        "Ġnemato",
        "de"
      ],
      [
        "o",
        "us"
      ],
      [
        "as",
        "p"
      ],
      [
        "Ġphenol",
        "ic"
      ],
      [
        "Ġdo",
        "dec"
      ],
      [
        "thi",
        "o"
      ],
      [
        "Ġle",
        "aves"
      ],
      [
        "arg",
        "inine"
      ],
      [
        "im",
        "e"
      ],
      [
        "Ġoctadec",
        "anoic"
      ],
      [
        "Ġmacroc",
        "ycle"
      ],
      [
        "Ġb",
        "is"
      ],
      [
        "Ġde",
        "hydro"
      ],
      [
        "sphing",
        "osine"
      ],
      [
        "Ġamo",
        "un"
      ],
      [
        "a",
        "em"
      ],
      [
        "d",
        "ep"
      ],
      [
        "Ġ",
        "ul"
      ],
      [
        "Ġ2",
        "4"
      ],
      [
        "oc",
        "tac"
      ],
      [
        "az",
        "o"
      ],
      [
        "Ġglycosyloxy",
        "flavone"
      ],
      [
        "di",
        "amino"
      ],
      [
        "ĠMa",
        "jor"
      ],
      [
        "2",
        "7"
      ],
      [
        "Ġc",
        "alc"
      ],
      [
        "or",
        "e"
      ],
      [
        "Ġanion",
        "ic"
      ],
      [
        "ket",
        "ide"
      ],
      [
        "Ġanth",
        "r"
      ],
      [
        "hist",
        "idine"
      ],
      [
        "Ġxanth",
        "ones"
      ],
      [
        "Ġgrow",
        "th"
      ],
      [
        "Ġ",
        "K"
      ],
      [
        "Ġm",
        "orph"
      ],
      [
        "Ġcom",
        "b"
      ],
      [
        "osph",
        "ing"
      ],
      [
        "odi",
        "lator"
      ],
      [
        "steroid",
        "al"
      ],
      [
        "Ġwhi",
        "le"
      ],
      [
        "f",
        "ic"
      ],
      [
        "Ġd",
        "op"
      ],
      [
        "tetr",
        "acos"
      ],
      [
        "Ġv",
        "ol"
      ],
      [
        "Ġnucle",
        "oside"
      ],
      [
        "Ġmac",
        "rol"
      ],
      [
        "Ġdim",
        "ethoxy"
      ],
      [
        "+",
        ")"
      ],
      [
        "er",
        "s"
      ],
      [
        "benzo",
        "furans"
      ],
      [
        "acon",
        "t"
      ],
      [
        "reg",
        "n"
      ],
      [
        "glucuron",
        "ide"
      ],
      [
        ".",
        ")."
      ],
      [
        "di",
        "ox"
      ],
      [
        "Ġpyr",
        "idines"
      ],
      [
        "Man",
        "p"
      ],
      [
        "ha",
        "l"
      ],
      [
        "an",
        "one"
      ],
      [
        "ul",
        "ose"
      ],
      [
        "ĠM",
        "ar"
      ],
      [
        "Ġrib",
        "onucleoside"
      ],
      [
        "op",
        "eptide"
      ],
      [
        "Ġse",
        "ver"
      ],
      [
        "prop",
        "anoic"
      ],
      [
        "ord",
        "ing"
      ],
      [
        "fuc",
        "osyl"
      ],
      [
        "Ġamoun",
        "ts"
      ],
      [
        "Ġt",
        "y"
      ],
      [
        "Ġb",
        "u"
      ],
      [
        "Ġdocos",
        "anoid"
      ],
      [
        "Ġdichloro",
        "benzene"
      ],
      [
        "cu",
        "l"
      ],
      [
        "Ġmo",
        "d"
      ],
      [
        "tri",
        "azine"
      ],
      [
        "ĠMar",
        "vin"
      ],
      [
        "Ġ",
        "0"
      ],
      [
        "Ġm",
        "an"
      ],
      [
        "ol",
        "ipid"
      ],
      [
        "Ġs",
        "ta"
      ],
      [
        "tion",
        "s"
      ],
      [
        "hydro",
        "xyl"
      ],
      [
        "im",
        "olar"
      ],
      [
        "ri",
        "es"
      ],
      [
        "Ġorgano",
        "brom"
      ],
      [
        "ure",
        "as"
      ],
      [
        "Ġall",
        "ylic"
      ],
      [
        "acc",
        "ording"
      ],
      [
        "Ġconn",
        "ected"
      ],
      [
        "Ġmacrol",
        "ide"
      ],
      [
        "Ġorganobrom",
        "ine"
      ],
      [
        "n",
        "el"
      ],
      [
        "u",
        "ronic"
      ],
      [
        "Ġb",
        "acter"
      ],
      [
        "cu",
        "r"
      ],
      [
        "am",
        "ental"
      ],
      [
        "ta",
        "hydro"
      ],
      [
        "Ġcar",
        "c"
      ],
      [
        "sulf",
        "onyl"
      ],
      [
        "adi",
        "enoyl"
      ],
      [
        "Ġbl",
        "ood"
      ],
      [
        "Ġcarbon",
        "s"
      ],
      [
        "-{",
        "["
      ],
      [
        "Ġequ",
        "imolar"
      ],
      [
        "Ġhom",
        "o"
      ],
      [
        "Ġg",
        "ibberellin"
      ],
      [
        "Ġhe",
        "m"
      ],
      [
        "docosahexa",
        "enoic"
      ],
      [
        "n",
        "es"
      ],
      [
        "Ġ",
        "es"
      ],
      [
        "Ġan",
        "g"
      ],
      [
        "Ġind",
        "ol"
      ],
      [
        "Ġind",
        "oles"
      ],
      [
        "Ġgluc",
        "os"
      ],
      [
        "ati",
        "le"
      ],
      [
        "id",
        "ase"
      ],
      [
        "ent",
        "s"
      ],
      [
        "Gl",
        "u"
      ],
      [
        "uron",
        "osyl"
      ],
      [
        "Ġvol",
        "atile"
      ],
      [
        "s",
        "il"
      ],
      [
        "er",
        "ties"
      ],
      [
        "ol",
        "u"
      ],
      [
        "Ġtr",
        "ipeptide"
      ],
      [
        "Ġanti",
        "hyp"
      ],
      [
        "Ġcent",
        "ral"
      ],
      [
        "a",
        "in"
      ],
      [
        "n",
        "ary"
      ],
      [
        "s",
        "tereoisomer"
      ],
      [
        "Ġor",
        "tho"
      ],
      [
        "Ġole",
        "an"
      ],
      [
        "Ġhex",
        "asaccharide"
      ],
      [
        "Ġanil",
        "ine"
      ],
      [
        "2",
        "9"
      ],
      [
        "f",
        "actor"
      ],
      [
        "l",
        "ud"
      ],
      [
        "en",
        "ol"
      ],
      [
        "ic",
        "a"
      ],
      [
        "Ġac",
        "ross"
      ],
      [
        "im",
        "ino"
      ],
      [
        "Ġtetra",
        "dec"
      ],
      [
        "Ġcinn",
        "amate"
      ],
      [
        "Ġcatechol",
        "s"
      ],
      [
        "ro",
        "gen"
      ],
      [
        "Ġo",
        "il"
      ],
      [
        "Ġbenz",
        "ene"
      ],
      [
        "Ġbenz",
        "amides"
      ],
      [
        "Ġprop",
        "erties"
      ],
      [
        "Ġprod",
        "uct"
      ],
      [
        "Ġim",
        "mun"
      ],
      [
        "Ġoxy",
        "gen"
      ],
      [
        "Ġ",
        "undec"
      ],
      [
        "Ġis",
        "opropyl"
      ],
      [
        "Ġf",
        "und"
      ],
      [
        "Ġs",
        "tereoc"
      ],
      [
        "Ġhydroxy",
        "methyl"
      ],
      [
        "Ġbut",
        "an"
      ],
      [
        "onucle",
        "otide"
      ],
      [
        "Ġbl",
        "ock"
      ],
      [
        "Ġfund",
        "amental"
      ],
      [
        "H",
        "IV"
      ],
      [
        "es",
        "c"
      ],
      [
        "Ġ2",
        "2"
      ],
      [
        "Ġhyp",
        "o"
      ],
      [
        "aconta",
        "penta"
      ],
      [
        "edio",
        "ic"
      ],
      [
        "Ġbiosynthe",
        "sis"
      ],
      [
        "Ġan",
        "a"
      ],
      [
        "Ġan",
        "imal"
      ],
      [
        "ti",
        "al"
      ],
      [
        "Ġr",
        "at"
      ],
      [
        "ron",
        "e"
      ],
      [
        "carb",
        "oxylate"
      ],
      [
        "han",
        "e"
      ],
      [
        "ĠH",
        "IV"
      ],
      [
        "phen",
        "oxy"
      ],
      [
        "Ġnaph",
        "tha"
      ],
      [
        "ertens",
        "ive"
      ],
      [
        "in",
        "al"
      ],
      [
        "Ġc",
        "a"
      ],
      [
        "ic",
        "yclo"
      ],
      [
        "Ġp",
        "re"
      ],
      [
        "Ġac",
        "etic"
      ],
      [
        "Ġanti",
        "gen"
      ],
      [
        "Ġpyr",
        "id"
      ],
      [
        "Ġ[",
        "("
      ],
      [
        "hom",
        "om"
      ],
      [
        "osphing",
        "osine"
      ],
      [
        "-",
        ","
      ],
      [
        "9",
        "9"
      ],
      [
        "am",
        "ycin"
      ],
      [
        "Ġin",
        "fec"
      ],
      [
        "Ġ2",
        "1"
      ],
      [
        "oc",
        "arb"
      ],
      [
        "tetra",
        "dec"
      ],
      [
        "Ġtetra",
        "hydro"
      ],
      [
        "do",
        "dec"
      ],
      [
        "ofuran",
        "ose"
      ],
      [
        "ospor",
        "in"
      ],
      [
        "g",
        "e"
      ],
      [
        "m",
        "al"
      ],
      [
        "Ġcarb",
        "ob"
      ],
      [
        "Ġco",
        "factor"
      ],
      [
        "Ġsequen",
        "tially"
      ],
      [
        "ff",
        "e"
      ],
      [
        "Ġantihyp",
        "ertensive"
      ],
      [
        "lud",
        "ing"
      ],
      [
        "p",
        "hy"
      ],
      [
        "p",
        "oly"
      ],
      [
        "Ġ",
        "J"
      ],
      [
        "Ġp",
        "olycyclic"
      ],
      [
        "glyc",
        "oside"
      ],
      [
        "han",
        "es"
      ],
      [
        "iso",
        "flavone"
      ],
      [
        "orm",
        "one"
      ],
      [
        "Ġcytotoxic",
        "ity"
      ],
      [
        "chl",
        "orophenyl"
      ],
      [
        "Ġnatur",
        "al"
      ],
      [
        "v",
        "aline"
      ],
      [
        "oles",
        "terol"
      ],
      [
        "Ġcar",
        "ries"
      ],
      [
        "Ġtri",
        "ol"
      ],
      [
        "Ġcarbob",
        "icyclic"
      ],
      [
        "s",
        "in"
      ],
      [
        "Ġ",
        "iron"
      ],
      [
        "Ġac",
        "ts"
      ],
      [
        "Ġbeta",
        "ine"
      ],
      [
        "io",
        "id"
      ],
      [
        "Ġet",
        "hanol"
      ],
      [
        "ob",
        "ase"
      ],
      [
        "acos",
        "anoic"
      ],
      [
        "Ġnucle",
        "obase"
      ],
      [
        "Ġgu",
        "ai"
      ],
      [
        "rib",
        "onucleoside"
      ],
      [
        "C",
        "er"
      ],
      [
        "is",
        "ole"
      ],
      [
        "Ġs",
        "em"
      ],
      [
        "ul",
        "ator"
      ],
      [
        "ad",
        "renergic"
      ],
      [
        "Ġqu",
        "ater"
      ],
      [
        "Ġdim",
        "ethyl"
      ],
      [
        "icosatri",
        "enoic"
      ],
      [
        "d",
        "ichl"
      ],
      [
        "d",
        "ichloro"
      ],
      [
        "r",
        "am"
      ],
      [
        "Ġm",
        "u"
      ],
      [
        "Ġg",
        "all"
      ],
      [
        "Ġglyc",
        "yl"
      ],
      [
        "Ġfur",
        "ans"
      ],
      [
        "Ġchan",
        "nel"
      ],
      [
        "Ġcarc",
        "inogenic"
      ],
      [
        "n",
        "ia"
      ],
      [
        "an",
        "ol"
      ],
      [
        "Ġb",
        "ark"
      ],
      [
        "Ġtri",
        "hydroxyflavone"
      ],
      [
        "imid",
        "azol"
      ],
      [
        "anth",
        "ra"
      ],
      [
        "Ġpolyp",
        "renyl"
      ],
      [
        "Ġcyclo",
        "oxygenase"
      ],
      [
        "Ġfung",
        "us"
      ],
      [
        "Ġglucos",
        "iduronic"
      ],
      [
        "l",
        "l"
      ],
      [
        "s",
        "tr"
      ],
      [
        "or",
        "n"
      ],
      [
        "or",
        "cin"
      ],
      [
        "Ġthi",
        "o"
      ],
      [
        "ylet",
        "hanolamine"
      ],
      [
        "azep",
        "ine"
      ],
      [
        "ste",
        "aroyl"
      ],
      [
        "gu",
        "an"
      ],
      [
        "Ġquater",
        "nary"
      ],
      [
        "H",
        "ETE"
      ],
      [
        "i",
        "ties"
      ],
      [
        "x",
        "ide"
      ],
      [
        "Ġf",
        "ood"
      ],
      [
        "it",
        "al"
      ],
      [
        "Ġh",
        "ormone"
      ],
      [
        "Ġtri",
        "anion"
      ],
      [
        "Ġch",
        "olest"
      ],
      [
        "arachid",
        "onoyl"
      ],
      [
        "ol",
        "ine"
      ],
      [
        "octadec",
        "enoyl"
      ],
      [
        "Gal",
        "NAc"
      ],
      [
        "Ġflav",
        "one"
      ],
      [
        "Ġdis",
        "ulf"
      ],
      [
        "Ġcycl",
        "oprop"
      ],
      [
        "link",
        "ed"
      ],
      [
        "Ġul",
        "tra"
      ],
      [
        "Ġc",
        "hol"
      ],
      [
        "Ġcy",
        "an"
      ],
      [
        "octadec",
        "anoic"
      ],
      [
        "Ġhexadec",
        "anoyl"
      ],
      [
        "uv",
        "ic"
      ],
      [
        "b",
        "le"
      ],
      [
        "r",
        "il"
      ],
      [
        "ole",
        "n"
      ],
      [
        "as",
        "es"
      ],
      [
        "hydroxy",
        "flavanone"
      ],
      [
        "om",
        "ethyl"
      ],
      [
        "galact",
        "osaminyl"
      ],
      [
        "Ġflav",
        "onoid"
      ],
      [
        "f",
        "uro"
      ],
      [
        "Ġp",
        "yran"
      ],
      [
        "Ġres",
        "orcin"
      ],
      [
        "pyr",
        "idin"
      ],
      [
        "naph",
        "thyl"
      ],
      [
        "ren",
        "ol"
      ],
      [
        "d",
        "is"
      ],
      [
        "ar",
        "t"
      ],
      [
        "ket",
        "one"
      ],
      [
        "Ġgalact",
        "osamine"
      ],
      [
        "Ġinc",
        "luding"
      ],
      [
        "A",
        "c"
      ],
      [
        "g",
        "r"
      ],
      [
        "Ġ",
        "up"
      ],
      [
        "Ġc",
        "hlorine"
      ],
      [
        "hexa",
        "enoic"
      ],
      [
        "phosph",
        "or"
      ],
      [
        "glucu",
        "ronic"
      ],
      [
        "l",
        "actam"
      ],
      [
        "y",
        "len"
      ],
      [
        "on",
        "ol"
      ],
      [
        "id",
        "ino"
      ],
      [
        "Ġm",
        "al"
      ],
      [
        "Ġt",
        "op"
      ],
      [
        "am",
        "ido"
      ],
      [
        "Ġl",
        "act"
      ],
      [
        "Ġgl",
        "ob"
      ],
      [
        "ĠD",
        "NA"
      ],
      [
        "Ġpoly",
        "ketide"
      ],
      [
        "Ġco",
        "ord"
      ],
      [
        "but",
        "anoyl"
      ],
      [
        "sulfo",
        "amino"
      ],
      [
        "itr",
        "ans"
      ],
      [
        "b",
        "iphenyl"
      ],
      [
        "l",
        "o"
      ],
      [
        "Ġ",
        "und"
      ],
      [
        "in",
        "amide"
      ],
      [
        "rop",
        "rotective"
      ],
      [
        "Glc",
        "N"
      ],
      [
        "Ġmet",
        "hylene"
      ],
      [
        "form",
        "yl"
      ],
      [
        "Ġquin",
        "azol"
      ],
      [
        "H",
        "P"
      ],
      [
        "Ġa",
        "er"
      ],
      [
        "Ġw",
        "as"
      ],
      [
        "ĠC",
        "DP"
      ],
      [
        "acetyl",
        "cholinesterase"
      ],
      [
        "Ġgalact",
        "ose"
      ],
      [
        "naphtha",
        "lene"
      ],
      [
        "f",
        "r"
      ],
      [
        "di",
        "az"
      ],
      [
        "ĠD",
        "aph"
      ],
      [
        "Ġpar",
        "a"
      ],
      [
        "Ġoxid",
        "ation"
      ],
      [
        "Ġsever",
        "al"
      ],
      [
        "Ġp",
        "s"
      ],
      [
        "ol",
        "l"
      ],
      [
        "Ġv",
        "it"
      ],
      [
        "ulf",
        "onate"
      ],
      [
        "Ġactiv",
        "ities"
      ],
      [
        "ch",
        "in"
      ],
      [
        "Ġcompr",
        "ised"
      ],
      [
        "hep",
        "tadec"
      ],
      [
        "Ġbrom",
        "o"
      ],
      [
        "Ġfrag",
        "ment"
      ],
      [
        "Ġ",
        "y"
      ],
      [
        "ty",
        "pe"
      ],
      [
        "Ġpyr",
        "azoles"
      ],
      [
        "trans",
        "fer"
      ],
      [
        "'",
        "'-"
      ],
      [
        "i",
        "e"
      ],
      [
        "is",
        "ation"
      ],
      [
        "Ġm",
        "yo"
      ],
      [
        "Ġp",
        "ot"
      ],
      [
        "di",
        "phospho"
      ],
      [
        "hi",
        "g"
      ],
      [
        "Ġtr",
        "icarboxylic"
      ],
      [
        "opyran",
        "uronosyl"
      ],
      [
        "galact",
        "oside"
      ],
      [
        "sulf",
        "ate"
      ],
      [
        "Ġtri",
        "phosphate"
      ],
      [
        "Ġmonomethoxy",
        "benzene"
      ],
      [
        "Ġseroton",
        "ergic"
      ],
      [
        "ĠDaph",
        "nia"
      ],
      [
        "Ġp",
        "almitoyl"
      ],
      [
        "ar",
        "icide"
      ],
      [
        "hyd",
        "r"
      ],
      [
        "flavan",
        "ones"
      ],
      [
        "rib",
        "ose"
      ],
      [
        "Ġhydroxyl",
        "ation"
      ],
      [
        "5",
        "0"
      ],
      [
        "r",
        "eceptor"
      ],
      [
        "Ġ",
        "-"
      ],
      [
        "os",
        "a"
      ],
      [
        "os",
        "erine"
      ],
      [
        "Ġha",
        "p"
      ],
      [
        "em",
        "ent"
      ],
      [
        "av",
        "en"
      ],
      [
        "but",
        "anoic"
      ],
      [
        "cin",
        "n"
      ],
      [
        "Ġsc",
        "aven"
      ],
      [
        "anthra",
        "quinone"
      ],
      [
        "d",
        "icarboxylic"
      ],
      [
        "t",
        "ing"
      ],
      [
        "Ġc",
        "hlor"
      ],
      [
        "Ġr",
        "ac"
      ],
      [
        "oc",
        "arboxylic"
      ],
      [
        "Ġglyc",
        "ol"
      ],
      [
        "Ġco",
        "un"
      ],
      [
        "icos",
        "a"
      ],
      [
        "Ġcor",
        "e"
      ],
      [
        "thi",
        "azol"
      ],
      [
        "aspar",
        "ag"
      ],
      [
        "Ġimid",
        "azol"
      ],
      [
        "Ġorganosulf",
        "onate"
      ],
      [
        "Ġarachid",
        "onic"
      ],
      [
        "Ġcaroten",
        "oid"
      ],
      [
        "Ġdise",
        "ase"
      ],
      [
        "a",
        "ler"
      ],
      [
        "Ġpyr",
        "imid"
      ],
      [
        "carb",
        "amoyl"
      ],
      [
        "th",
        "m"
      ],
      [
        "Ġbi",
        "le"
      ],
      [
        "Ġglut",
        "athione"
      ],
      [
        "acet",
        "ate"
      ],
      [
        "transfer",
        "ase"
      ],
      [
        "a",
        "ur"
      ],
      [
        "y",
        "el"
      ],
      [
        "in",
        "ol"
      ],
      [
        "hydroxy",
        "methyl"
      ],
      [
        "Ġtr",
        "y"
      ],
      [
        "Ġph",
        "thal"
      ],
      [
        "Ġglyc",
        "erol"
      ],
      [
        "Ġconta",
        "ining"
      ],
      [
        "Ġcalc",
        "ium"
      ],
      [
        "3",
        "2"
      ],
      [
        "Ġm",
        "ix"
      ],
      [
        "Ġt",
        "yp"
      ],
      [
        "or",
        "t"
      ],
      [
        "oc",
        "yclic"
      ],
      [
        "yr",
        "ist"
      ],
      [
        "Ġn",
        "icot"
      ],
      [
        "im",
        "idin"
      ],
      [
        "Ġphosph",
        "odi"
      ],
      [
        "Ġcy",
        "ano"
      ],
      [
        "Ġsp",
        "ong"
      ],
      [
        "hep",
        "ta"
      ],
      [
        "Ġce",
        "pha"
      ],
      [
        "aem",
        "p"
      ],
      [
        "p",
        "le"
      ],
      [
        "s",
        "accharide"
      ],
      [
        "s",
        "ipeptide"
      ],
      [
        "Ġ",
        "hexa"
      ],
      [
        "is",
        "s"
      ],
      [
        "Ġand",
        "rost"
      ],
      [
        "Ġac",
        "aricide"
      ],
      [
        "or",
        "phy"
      ],
      [
        "Ġn",
        "ot"
      ],
      [
        "amin",
        "es"
      ],
      [
        "Ġmono",
        "phosphate"
      ],
      [
        "deoxy",
        "ribonucleoside"
      ],
      [
        "Ġcation",
        "ic"
      ],
      [
        "Ġimid",
        "azoles"
      ],
      [
        "Ġty",
        "rosine"
      ],
      [
        "id",
        "yl"
      ],
      [
        "um",
        "our"
      ],
      [
        "dimethyl",
        "amino"
      ],
      [
        "alk",
        "ane"
      ],
      [
        "Ġpar",
        "ts"
      ],
      [
        "iso",
        "flav"
      ],
      [
        "arab",
        "in"
      ],
      [
        "til",
        "b"
      ],
      [
        "anthen",
        "e"
      ],
      [
        "O",
        "H"
      ],
      [
        "o",
        "gen"
      ],
      [
        "es",
        "the"
      ],
      [
        "Ġf",
        "ive"
      ],
      [
        "Ġf",
        "actor"
      ],
      [
        "hydroxy",
        "acyl"
      ],
      [
        "em",
        "ethyl"
      ],
      [
        "Ġ2",
        "6"
      ],
      [
        "oplas",
        "ma"
      ],
      [
        "Ġneu",
        "roprotective"
      ],
      [
        "Ġvas",
        "odilator"
      ],
      [
        "p",
        "ic"
      ],
      [
        "x",
        "in"
      ],
      [
        "Ġ",
        "V"
      ],
      [
        "Ġb",
        "ro"
      ],
      [
        "hydroxy",
        "ethyl"
      ],
      [
        "ph",
        "osphatidyl"
      ],
      [
        "Ġtr",
        "icyclic"
      ],
      [
        "fuc",
        "ose"
      ],
      [
        "ĠMyc",
        "oplasma"
      ],
      [
        "isole",
        "ucine"
      ],
      [
        "Ġaer",
        "ial"
      ],
      [
        "e",
        "ed"
      ],
      [
        "f",
        "erol"
      ],
      [
        "Ġ2",
        "3"
      ],
      [
        "benz",
        "othi"
      ],
      [
        "docos",
        "apentaenoic"
      ],
      [
        "Ġsuc",
        "c"
      ],
      [
        "aemp",
        "ferol"
      ],
      [
        "3",
        "3"
      ],
      [
        "F",
        "uc"
      ],
      [
        "p",
        "l"
      ],
      [
        "Ġ",
        "Z"
      ],
      [
        "Ġ",
        "enoate"
      ],
      [
        "Ġc",
        "l"
      ],
      [
        "at",
        "h"
      ],
      [
        "tr",
        "ac"
      ],
      [
        "Ġl",
        "actam"
      ],
      [
        "hem",
        "is"
      ],
      [
        "Ġgen",
        "ital"
      ],
      [
        "ycl",
        "ine"
      ],
      [
        "Ġpoly",
        "mer"
      ],
      [
        "Ġfr",
        "u"
      ],
      [
        "anil",
        "ic"
      ],
      [
        "Ġoct",
        "asaccharide"
      ],
      [
        "Ġicos",
        "anoid"
      ],
      [
        "Ġcholest",
        "anoid"
      ],
      [
        "Ġspong",
        "e"
      ],
      [
        "b",
        "icyclic"
      ],
      [
        "Ġp",
        "almit"
      ],
      [
        "Ġs",
        "ix"
      ],
      [
        "Ġs",
        "alic"
      ],
      [
        "ate",
        "s"
      ],
      [
        "ĠA",
        "r"
      ],
      [
        "Ġco",
        "b"
      ],
      [
        "ucle",
        "otide"
      ],
      [
        "tra",
        "diol"
      ],
      [
        "Ġresorcin",
        "ols"
      ],
      [
        "Ġhap",
        "ten"
      ],
      [
        "Ġgenital",
        "ium"
      ],
      [
        "Ġ",
        "ent"
      ],
      [
        "it",
        "rile"
      ],
      [
        "op",
        "hyt"
      ],
      [
        "-)",
        ","
      ],
      [
        "Ġhetero",
        "bicyclic"
      ],
      [
        "adi",
        "enoic"
      ],
      [
        "brom",
        "o"
      ],
      [
        "lin",
        "olen"
      ],
      [
        "]",
        "["
      ],
      [
        "i",
        "i"
      ],
      [
        "r",
        "ys"
      ],
      [
        "is",
        "h"
      ],
      [
        "Ġt",
        "hym"
      ],
[...]
